node {
  name: "Train/TrainInput/raw_data"
  op: "Const"
  attr {
    key: "_output_shapes"
    value {
      list {
        shape {
          dim {
            size: 2910
          }
        }
      }
    }
  }
  attr {
    key: "dtype"
    value {
      type: DT_INT32
    }
  }
  attr {
    key: "value"
    value {
      tensor {
        dtype: DT_INT32
        tensor_shape {
          dim {
            size: 2910
          }
        }
        tensor_content: "2\010\000\0002\010\000\0002\010\000\0002\010\000\0002\010\000\0000\030\000\0000\030\000\0002\010\000\0002\010\000\0000\030\000\0002\010\000\0002\010\000\0002\010\000\0000\030\000\000\223\004\000\000\000\000\000\000\036\020\000\000;%\000\000\036\020\000\000\036\020\000\000\036\020\000\000\036\020\000\000;%\000\000\036\020\000\000\036\020\000\000\036\020\000\000\036\020\000\000\036\020\000\000\036\020\000\000\036\020\000\000\337\014\000\000\000\000\000\000\003\013\000\000\003\013\000\000\003\013\000\000\003\013\000\000\003\013\000\000\003\013\000\000\003\013\000\000j&\000\000j&\000\000\301\000\000\000\003\013\000\000j&\000\000j&\000\000\003\013\000\000\003\013\000\000\003\013\000\000\003\013\000\000j&\000\000j&\000\000\003\013\000\000j&\000\000j&\000\000j&\000\000j&\000\000j&\000\000j&\000\000j&\000\000j&\000\000j&\000\000j&\000\000j&\000\000j&\000\000j&\000\000j&\000\000j&\000\000j&\000\000j&\000\000j&\000\000j&\000\000j&\000\000j&\000\000j&\000\000j&\000\000j&\000\000\374\005\000\000\000\000\000\000\255\007\000\000\255\007\000\000\255\007\000\000\255\007\000\000\255\007\000\000\255\007\000\000\255\007\000\000\255\007\000\000+\004\000\000\255\007\000\000\255\007\000\000\255\007\000\000\255\007\000\000\255\007\000\000\255\007\000\000\255\007\000\000\255\007\000\000\255\007\000\000\255\007\000\000\255\007\000\000\255\007\000\000\003\013\000\000\003\013\000\000\003\013\000\000\003\013\000\000\003\013\000\000\003\013\000\000\003\013\000\000\003\013\000\000\255\007\000\000\255\007\000\000\003\013\000\000\003\013\000\000\003\013\000\000\003\013\000\000\003\013\000\000\003\013\000\000\003\013\000\000\003\013\000\000\003\013\000\000\003\013\000\000\003\013\000\000\003\013\000\000\003\013\000\000\003\013\000\000\374\005\000\000\000\000\000\000\223\024\000\000\223\024\000\000\223\024\000\000g\037\000\000+\000\000\000g\037\000\000\223\024\000\000\223\024\000\000\223\024\000\000\223\024\000\000\223\024\000\000\223\024\000\000\223\024\000\000\320\037\000\000\223\024\000\000\223\024\000\000\223\024\000\000\223\024\000\000\223\024\000\000\223\024\000\000\223\024\000\000\223\024\000\000\223\024\000\000+\000\000\000+\000\000\000\223\024\000\000\223\024\000\000\223\024\000\000\223\024\000\000g\037\000\000\223\024\000\000\223\024\000\000\223\024\000\000+\000\000\000\223\024\000\000\223\024\000\000\223\024\000\000\320\037\000\000\320\037\000\000\223\024\000\000\320\037\000\000 \000\000\000\000\000\000\000\265\016\000\000:\000\000\000:\000\000\000:\000\000\000:\000\000\000\265\016\000\000\265\016\000\000:\000\000\000:\000\000\000:\000\000\000:\000\000\000\265\016\000\000:\000\000\000:\000\000\000u\025\000\000\265\016\000\000:\000\000\000:\000\000\000:\000\000\000:\000\000\000:\000\000\000\265\016\000\000:\000\000\000:\000\000\000:\000\000\000:\000\000\000:\000\000\000:\000\000\000\304\024\000\000:\000\000\000:\000\000\000:\000\000\000:\000\000\000:\000\000\000:\000\000\000N\003\000\000\000\000\000\000\304\024\000\000\304\024\000\000\304\024\000\000\304\024\000\000\304\024\000\000\304\024\000\000\304\024\000\000\345\022\000\000\304\024\000\000\304\024\000\000\304\024\000\000\304\024\000\000\304\024\000\000\304\024\000\000\304\024\000\000\304\024\000\000\304\024\000\000\304\024\000\000\304\024\000\000\345\022\000\000\306\001\000\000\000\000\000\000\374\025\000\000\374\025\000\000\374\025\000\000\374\025\000\000\374\025\000\000\374\025\000\000\374\025\000\000\210\001\000\000\000\000\000\000X\023\000\000\313\004\000\000\000\000\000\000\220\037\000\000\314\017\000\000\305\026\000\000\305\026\000\000\305\026\000\000\314\017\000\000\305\026\000\000\305\026\000\000\305\026\000\000\305\026\000\000\305\026\000\000\305\026\000\000\305\026\000\000\305\026\000\000f\000\000\000\000\000\000\000\374\025\000\000\374\025\000\000\374\025\000\000\374\025\000\000\374\025\000\000\374\025\000\000\374\025\000\000\374\025\000\000\374\025\000\000\374\025\000\000\374\025\000\000\374\025\000\000\374\025\000\000\374\025\000\000\374\025\000\000\374\025\000\000\374\025\000\000\374\025\000\000\374\025\000\000\374\025\000\000\374\025\000\000\004\024\000\000\374\025\000\000\374\025\000\000\374\025\000\000\374\025\000\000\374\025\000\000\374\025\000\000\374\025\000\000\374\025\000\000\374\025\000\000\374\025\000\000\374\025\000\000R\002\000\000\000\000\000\0008\035\000\0008\035\000\0008\035\000\0008\035\000\0008\035\000\0008\035\000\0008\035\000\0008\035\000\0008\035\000\000\273$\000\0008\035\000\0008\035\000\0008\035\000\0008\035\000\0008\035\000\0008\035\000\0008\035\000\0008\035\000\0008\035\000\0008\035\000\0008\035\000\0008\035\000\000,\031\000\0008\035\000\000\000\000\000\000\270 \000\000\270 \000\000\270 \000\000\270 \000\000\270 \000\000s\024\000\000s\024\000\000\270 \000\000\270 \000\000\270 \000\000\270 \000\000\270 \000\000\270 \000\000\270 \000\000s\024\000\000\320\037\000\000\320\037\000\000\270 \000\000\270 \000\000s\024\000\000\270 \000\000\270 \000\000\270 \000\000\270 \000\000\270 \000\000\270 \000\000\215\000\000\000\000\000\000\000\320\037\000\000\320\037\000\000\320\037\000\000\223\024\000\000\320\037\000\000\320\037\000\000\320\037\000\000\320\037\000\000\320\037\000\000\320\037\000\000\320\037\000\000\320\037\000\000\320\037\000\000\320\037\000\000\320\037\000\000\320\037\000\000\320\037\000\000\320\037\000\000\320\037\000\000\320\037\000\000\320\037\000\000\320\037\000\000\320\037\000\000\320\037\000\000\320\037\000\000\320\037\000\000\320\037\000\000\320\037\000\000\320\037\000\000\320\037\000\000\320\037\000\000\320\037\000\000\320\037\000\000\320\037\000\000\320\037\000\000\320\037\000\000\320\037\000\000t\006\000\000\000\000\000\000\334\003\000\000\334\003\000\000\334\003\000\000\334\003\000\000\334\003\000\000\334\003\000\000\334\003\000\000\334\003\000\000\334\003\000\000\334\003\000\000\334\003\000\000\334\003\000\000\334\003\000\000\334\003\000\000\334\003\000\000\334\003\000\000\334\003\000\000\334\003\000\000\000\000\000\000\334\003\000\000\334\003\000\000\334\003\000\000\334\003\000\000\334\003\000\000\334\003\000\000\334\003\000\000\334\003\000\000\334\003\000\000\334\003\000\000\334\003\000\000\334\003\000\000\334\003\000\000\334\003\000\000\334\003\000\000\334\003\000\000\334\003\000\000\334\003\000\000\334\003\000\000\334\003\000\000\334\003\000\000\334\003\000\000\334\003\000\000\334\003\000\000\334\003\000\000\334\003\000\000\334\003\000\000\334\003\000\000\334\003\000\000\334\003\000\000\334\003\000\000\334\003\000\000\334\003\000\000\334\003\000\000\334\003\000\000\334\003\000\000\334\003\000\000\334\003\000\000\334\003\000\000\334\003\000\000\334\003\000\000\334\003\000\000\334\003\000\000\334\003\000\000\334\003\000\000\334\003\000\000\334\003\000\000\334\003\000\000\334\003\000\000\334\003\000\000\334\003\000\000\334\003\000\000F\000\000\000\000\000\000\000\034\035\000\000b \000\000b \000\000b \000\000b \000\000b \000\000b \000\000b \000\000b \000\000b \000\000\034\035\000\000b \000\000b \000\000\034\035\000\000\034\035\000\000b \000\000b \000\000b \000\000b \000\000b \000\000\034\035\000\000\034\035\000\000\034\035\000\000\034\035\000\000\034\035\000\000b \000\000\034\035\000\000\034\035\000\000b \000\000b \000\000F\000\000\000\000\000\000\000\255\007\000\000\255\007\000\000\255\007\000\000\255\007\000\000\255\007\000\000\255\007\000\000+\004\000\000\255\007\000\000\000\000\000\000\363\033\000\000\363\033\000\000\333\027\000\000\333\027\000\000\363\033\000\000\363\033\000\000\363\033\000\000\363\033\000\000\333\027\000\000\333\027\000\000\333\027\000\000\333\027\000\000\363\033\000\000\363\033\000\000\363\033\000\000\363\033\000\000\363\033\000\000\363\033\000\000\363\033\000\000\257\010\000\000\000\000\000\000\333\027\000\000\333\027\000\000\333\027\000\000\333\027\000\000\333\027\000\000\333\027\000\000\333\027\000\000\333\027\000\000\013\026\000\000\333\027\000\000\333\027\000\000\333\027\000\000\363\033\000\000\333\027\000\000\333\027\000\000\333\027\000\000\333\027\000\000\333\027\000\000\333\027\000\000\333\027\000\000\333\027\000\000\372\000\000\000\000\000\000\000\333\014\000\000\333\014\000\000\333\014\000\000\333\014\000\000\333\014\000\000\333\014\000\000\333\014\000\000\333\014\000\000\333\014\000\000\333\014\000\000\333\014\000\000\333\014\000\000\333\014\000\000\333\014\000\000\333\014\000\000\333\014\000\000\205\002\000\000\000\000\000\000\335\000\000\000\335\000\000\000\335\000\000\000\335\000\000\000\335\000\000\000\335\000\000\000\335\000\000\000\335\000\000\000\335\000\000\000\335\000\000\000\335\000\000\000\335\000\000\000\335\000\000\000 \t\000\000 \t\000\000 \t\000\000\335\000\000\000\335\000\000\000 \t\000\000\335\000\000\000 \t\000\000 \t\000\000\335\000\000\000\335\000\000\000 \t\000\000\335\000\000\000\335\000\000\000\335\000\000\000 \t\000\000\335\000\000\000\335\000\000\000\335\000\000\000 \t\000\000 \t\000\000 \t\000\000 \t\000\000 \t\000\000 \t\000\000 \t\000\000 \t\000\000 \t\000\000 \t\000\000 \t\000\000 \t\000\000 \t\000\000 \t\000\000 \t\000\000 \t\000\000 \t\000\000 \t\000\000 \t\000\000 \t\000\000_\000\000\000\000\000\000\000\317\r\000\000\317\r\000\000\317\r\000\000\317\r\000\000 \t\000\000 \t\000\000 \t\000\000\t\031\000\000 \t\000\000 \t\000\000 \t\000\000 \t\000\000 \t\000\000 \t\000\000\317\r\000\000 \t\000\000 \t\000\000\317\r\000\000\317\r\000\000 \t\000\000 \t\000\000 \t\000\000\317\r\000\000\317\r\000\000 \t\000\000\317\r\000\000\223\004\000\000\000\000\000\000\233\027\000\000.\"\000\000\233\027\000\000\233\027\000\000\233\027\000\000\233\027\000\000\233\027\000\000\352\001\000\000\233\027\000\000\233\027\000\000\352\001\000\000\352\001\000\000\352\001\000\000\233\027\000\000\233\027\000\000\352\001\000\000\233\027\000\000\352\001\000\000\352\001\000\000\352\001\000\000\233\027\000\000\233\027\000\000\352\001\000\000\352\001\000\000\233\027\000\000\352\001\000\000\352\001\000\000\233\027\000\000\000\000\000\0004\000\000\0004\000\000\000X\007\000\0004\000\000\000X\007\000\0004\000\000\0004\000\000\0004\000\000\000\351\n\000\0004\000\000\000\351\n\000\0004\000\000\0004\000\000\0004\000\000\0004\000\000\000\310%\000\000\000\000\000\000\037#\000\000\t\031\000\000K\022\000\000r\007\000\000\032#\000\000t\032\000\000 \t\000\000%\006\000\000\t\031\000\000\335\000\000\000u%\000\000\257\016\000\000\320$\000\000\270%\000\000\014\"\000\000b!\000\000l\035\000\000J\002\000\000\000\000\000\000\233\027\000\000\332\"\000\0007\r\000\000\233\027\000\000A&\000\000\362!\000\000Q\032\000\000\233\027\000\000\332\031\000\000<\036\000\000Q\032\000\000\367\020\000\000\000\000\000\000< \000\000< \000\000< \000\000< \000\000< \000\000< \000\000< \000\000< \000\000< \000\000< \000\000< \000\000< \000\000< \000\000< \000\000< \000\000< \000\000< \000\000< \000\000< \000\000< \000\000< \000\000< \000\000< \000\000< \000\000< \000\000< \000\000< \000\000< \000\000< \000\000< \000\000< \000\000< \000\000:\n\000\000< \000\000< \000\000< \000\000:\n\000\000:\n\000\000:\n\000\000:\n\000\000:\n\000\000:\n\000\000:\n\000\000:\n\000\000:\n\000\000:\n\000\000:\n\000\000:\n\000\000:\n\000\000:\n\000\000\r\010\000\000\r\010\000\000\r\010\000\000\r\010\000\000\r\010\000\000\r\010\000\000:\n\000\000:\n\000\000:\n\000\000:\n\000\000:\n\000\000\r\010\000\000\r\010\000\000\r\010\000\000\r\010\000\000:\n\000\000\r\010\000\000\r\010\000\000:\n\000\000\222\025\000\000\000\000\000\000>\027\000\000>\027\000\000>\027\000\000>\027\000\000>\027\000\000>\027\000\000>\027\000\000>\027\000\000>\027\000\000>\027\000\000>\027\000\000>\027\000\000>\027\000\000>\027\000\000>\027\000\000>\027\000\000>\027\000\000>\027\000\000>\027\000\000>\027\000\000>\027\000\000>\027\000\000>\027\000\000>\027\000\000\321\014\000\000>\027\000\000>\027\000\000>\027\000\000\321\014\000\000>\027\000\000>\027\000\000>\027\000\000>\027\000\000>\027\000\000>\027\000\000>\027\000\000>\027\000\000>\027\000\000>\027\000\000>\027\000\000>\027\000\000>\027\000\000>\027\000\000>\027\000\000>\027\000\000>\027\000\000\335\"\000\000\000\000\000\000\251\001\000\000\251\001\000\000\251\001\000\000\251\001\000\000\251\001\000\000\251\001\000\000\251\001\000\000>\027\000\000\251\001\000\000>\027\000\000>\027\000\000>\027\000\000>\027\000\000>\027\000\000>\027\000\000>\027\000\000>\027\000\000>\027\000\000>\027\000\000>\027\000\000>\027\000\000>\027\000\000>\027\000\000>\027\000\000>\027\000\000\000\000\000\000\321\014\000\000\321\014\000\000\321\014\000\000\321\014\000\000\321\014\000\000\336\027\000\000\336\027\000\000\336\027\000\000\336\027\000\000\336\027\000\000\336\027\000\000\336\027\000\000\336\027\000\000\336\027\000\000\336\027\000\000\336\027\000\000\336\027\000\000\336\027\000\000\336\027\000\000\336\027\000\000\336\027\000\000\336\027\000\000\336\027\000\000\336\027\000\000\336\027\000\000\321\014\000\000\321\014\000\000\321\014\000\000\336\027\000\000\336\027\000\000\336\027\000\000\336\027\000\000\336\027\000\000\336\027\000\000\336\027\000\000\336\027\000\000\336\027\000\000\336\027\000\000\336\027\000\000?\023\000\000\000\000\000\000.\025\000\000.\025\000\000.\025\000\000.\025\000\000.\025\000\000.\025\000\000.\025\000\000.\025\000\000.\025\000\000.\025\000\000.\025\000\000.\025\000\000.\025\000\000.\025\000\000.\025\000\000.\025\000\000\000\000\000\000\314\"\000\000u\027\000\000\314\"\000\000^ \000\000\314\"\000\000u\027\000\000\314\"\000\000u\027\000\000\314\"\000\000\314\"\000\000\314\"\000\000\314\"\000\000\314\"\000\000\314\"\000\000\314\"\000\000\314\"\000\000u\027\000\000\314\"\000\000\314\"\000\000\314\"\000\000\314\"\000\000\314\"\000\000\314\"\000\000\314\"\000\000\314\"\000\000\314\"\000\000\314\"\000\000u\027\000\000\314\"\000\000u\027\000\000u\027\000\000\314\"\000\000\314\"\000\000u\027\000\000u\027\000\000\314\"\000\000\314\"\000\000\314\"\000\000\314\"\000\000\314\"\000\000u\027\000\000e\010\000\000\000\000\000\000k\023\000\000k\023\000\000k\023\000\000\033\t\000\000k\023\000\000k\023\000\000k\023\000\000k\023\000\000k\023\000\000k\023\000\000k\023\000\000k\023\000\000k\023\000\000k\023\000\000k\023\000\000k\023\000\000k\023\000\000k\023\000\000k\023\000\000k\023\000\000k\023\000\000k\023\000\000k\023\000\000k\023\000\000k\023\000\000k\023\000\000k\023\000\000\233\017\000\000\000\000\000\000\310\037\000\000\310\037\000\000\310\037\000\000\310\037\000\000\310\037\000\000\310\037\000\000\310\037\000\000\310\037\000\000\310\037\000\0001\017\000\0001\017\000\0001\017\000\0001\017\000\0001\017\000\0001\017\000\000\310\037\000\000\310\037\000\000\310\037\000\000\310\037\000\000\310\037\000\000\310\037\000\000\310\037\000\000\310\037\000\000\310\037\000\000\310\037\000\000\310\037\000\000\310\037\000\000\310\037\000\000\310\037\000\000\310\037\000\000\310\037\000\000\310\037\000\000\310\037\000\000\310\037\000\000\310\037\000\000\310\037\000\000\310\037\000\000\310\037\000\000\310\037\000\000\310\037\000\000\310\037\000\000\310\037\000\000\310\037\000\000\310\037\000\000\310\037\000\000\310\037\000\000\310\037\000\000\310\037\000\000\233\017\000\000\000\000\000\000q\r\000\000q\r\000\000q\r\000\000q\r\000\000q\r\000\000q\r\000\000q\r\000\000q\r\000\000q\r\000\000q\r\000\000q\r\000\000q\r\000\000q\r\000\000q\r\000\000q\r\000\000q\r\000\000q\r\000\000q\r\000\000q\r\000\000q\r\000\000q\r\000\000\222\003\000\000\000\000\000\000\211\000\000\000\211\000\000\000\211\000\000\000\211\000\000\000\211\000\000\000\211\000\000\000\211\000\000\000\211\000\000\000\211\000\000\000\211\000\000\000\211\000\000\000\211\000\000\000\211\000\000\000\211\000\000\000\211\000\000\000\211\000\000\000\211\000\000\000\211\000\000\000\211\000\000\000\211\000\000\000\211\000\000\000\211\000\000\000\211\000\000\000\211\000\000\000|\026\000\000\211\000\000\000\000\000\000\000\002\036\000\000\002\036\000\000\002\036\000\000\002\036\000\000\002\036\000\000\002\036\000\000\002\036\000\000\002\036\000\000\002\036\000\000\346\017\000\000\002\036\000\000\002\036\000\000\002\036\000\000\002\036\000\000\002\036\000\000\002\036\000\000\002\036\000\000\002\036\000\000\002\036\000\000\002\036\000\000\002\036\000\000\346\017\000\000\002\036\000\000\002\036\000\000\002\036\000\000\346\017\000\000\002\036\000\000\002\036\000\000\002\036\000\000\346\017\000\000\346\017\000\000\002\036\000\000\002\036\000\000\346\017\000\000\002\036\000\000\002\036\000\000\002\036\000\000\002\036\000\000\346\017\000\000\002\036\000\000\346\017\000\000\002\036\000\000\002\036\000\000\002\036\000\000\002\036\000\000\002\036\000\000\002\036\000\000\317\036\000\000\000\000\000\000q\r\000\000q\r\000\000\227\020\000\000q\r\000\000q\r\000\000q\r\000\000q\r\000\000q\r\000\000q\r\000\000q\r\000\000q\r\000\000\263\032\000\000q\r\000\000q\r\000\000q\r\000\000q\r\000\000q\r\000\000q\r\000\000\000\000\000\000q\r\000\000q\r\000\000\263\032\000\000q\r\000\000q\r\000\000q\r\000\000q\r\000\000q\r\000\000q\r\000\000q\r\000\000q\r\000\000q\r\000\000q\r\000\000q\r\000\000q\r\000\000q\r\000\000q\r\000\000q\r\000\000q\r\000\000q\r\000\000q\r\000\000q\r\000\000q\r\000\000q\r\000\000q\r\000\000q\r\000\000q\r\000\000q\r\000\000q\r\000\000q\r\000\000q\r\000\000q\r\000\000q\r\000\000q\r\000\000q\r\000\000q\r\000\000q\r\000\000q\r\000\000q\r\000\000q\r\000\000q\r\000\000\263\032\000\000q\r\000\000q\r\000\000q\r\000\000q\r\000\000q\r\000\000q\r\000\000\306\035\000\000\000\000\000\000\332\020\000\000\332\020\000\000\332\020\000\000\332\020\000\000\332\020\000\000\332\020\000\000\333\016\000\000\000\000\000\000/\030\000\000P\026\000\000\332\020\000\000\332\020\000\000\332\020\000\000\332\020\000\000/\030\000\000\'\030\000\000/\030\000\000\332\020\000\000\332\020\000\000\332\020\000\000\332\020\000\000\332\020\000\000/\030\000\000\226\014\000\000\000\000\000\000J\n\000\000J\n\000\000J\n\000\000J\n\000\000\347 \000\000J\n\000\000J\n\000\000J\n\000\000J\n\000\000\347 \000\000J\n\000\000J\n\000\000J\n\000\000J\n\000\000\347 \000\000\347 \000\000\347 \000\000J\n\000\000J\n\000\000\347 \000\000\347 \000\000J\n\000\000\347 \000\000J\n\000\000\347 \000\000\347 \000\000\347 \000\000\347 \000\000J\n\000\000\220\030\000\000\000\000\000\000J\n\000\000J\n\000\000J\n\000\000\347 \000\000J\n\000\000J\n\000\000J\n\000\000J\n\000\000J\n\000\000J\n\000\000J\n\000\000J\n\000\000J\n\000\000J\n\000\000J\n\000\000J\n\000\000J\n\000\000J\n\000\000J\n\000\000J\n\000\000J\n\000\000J\n\000\000J\n\000\000`\031\000\000\000\000\000\000\347 \000\000\347 \000\000\347 \000\000\347 \000\000\347 \000\000\347 \000\000\347 \000\000\347 \000\000\347 \000\000\347 \000\000\347 \000\000\347 \000\000\347 \000\000\347 \000\000\347 \000\000\347 \000\000\347 \000\000\347 \000\000\347 \000\000\347 \000\000\347 \000\000\347 \000\000\347 \000\000\347 \000\000\347 \000\000\347 \000\000\220\030\000\000\000\000\000\000\347 \000\000\347 \000\000\347 \000\000\347 \000\000\347 \000\000\347 \000\000\347 \000\000\347 \000\000\347 \000\000\347 \000\000\347 \000\000\347 \000\000\347 \000\000\347 \000\000\347 \000\000\347 \000\000\347 \000\000\347 \000\000\347 \000\000\347 \000\000\347 \000\000\347 \000\000\347 \000\000\347 \000\000\347 \000\000\347 \000\000\347 \000\000\347 \000\000\347 \000\000\347 \000\000\347 \000\000\347 \000\000\347 \000\000\347 \000\000\347 \000\000\347 \000\000\347 \000\000\347 \000\000\347 \000\000\347 \000\000\347 \000\000\347 \000\000\347 \000\000\347 \000\000\300\006\000\000\000\000\000\000\356%\000\000\213\"\000\000,\030\000\000,\030\000\000,\030\000\000\356%\000\000,\030\000\000\356%\000\000,\030\000\000\356%\000\000,\030\000\000\356%\000\000\356%\000\000\356%\000\000\356%\000\000\356%\000\000\312\026\000\000\000\000\000\000\324\024\000\000\224%\000\000\224%\000\000\224%\000\000\224%\000\000,\027\000\000\224%\000\000\224%\000\000\224%\000\000\224%\000\000\025\027\000\000\000\000\000\000\317\002\000\000\317\002\000\000\317\002\000\000\317\002\000\000\317\002\000\000J\n\000\000\317\002\000\000J\n\000\000J\n\000\000J\n\000\000J\n\000\000\317\002\000\000J\n\000\000J\n\000\000J\n\000\000J\n\000\000\317\002\000\000\317\002\000\000J\n\000\000\317\002\000\000\000\000\000\000y\026\000\000y\026\000\000\036\030\000\000\036\030\000\000\213\"\000\000y\026\000\000y\026\000\000y\026\000\000,\030\000\000,\030\000\000\213\"\000\000y\026\000\000\213\"\000\000,\030\000\000\213\"\000\000\036\030\000\000y\026\000\000y\026\000\000y\026\000\000\036\030\000\000\036\030\000\000\036\030\000\000\213\"\000\000\036\030\000\000y\026\000\000\036\030\000\000\036\030\000\000y\026\000\000\036\030\000\000y\026\000\000y\026\000\000y\026\000\000y\026\000\000\213\"\000\000\036\030\000\000\036\030\000\000\036\030\000\000y\026\000\000\036\030\000\000\036\030\000\000\213\"\000\000\036\030\000\000y\026\000\000\036\030\000\000\213\"\000\000\036\030\000\000y\027\000\000\036\030\000\000\213\"\000\000\213\"\000\000y\026\000\000\236\004\000\000\000\000\000\000\347 \000\000\356%\000\000\356%\000\000\356%\000\000\356%\000\000\356%\000\000\356%\000\000,\030\000\000,\030\000\000,\030\000\000\356%\000\000\356%\000\000,\030\000\000y\026\000\000,\030\000\000\356%\000\000,\030\000\000\356%\000\000,\030\000\000\356%\000\000,\030\000\000,\030\000\000\356%\000\000\213\"\000\000\312\026\000\000\000\000\000\000\302\004\000\000\302\004\000\000\302\004\000\000\021\026\000\000\302\004\000\000\021\026\000\000\234%\000\000\234%\000\000\234%\000\000\234%\000\000\234%\000\000\234%\000\000\234%\000\000\234%\000\000\234%\000\000\234%\000\000\234%\000\000\234%\000\000\234%\000\000\234%\000\000\353\026\000\000\000\000\000\0005\023\000\0009\"\000\0009\"\000\0005\023\000\0005\023\000\0009\"\000\0005\023\000\0005\023\000\0005\023\000\0009\"\000\0009\"\000\0005\023\000\0005\023\000\0005\023\000\0005\023\000\0005\023\000\0005\023\000\0005\023\000\0005\023\000\0005\023\000\0005\023\000\0005\023\000\0005\023\000\0005\023\000\000\343\023\000\000\000\000\000\000\000\000\000\000\000\000\000\000\000\000\000\000\000\000\000\000l\031\000\000\000\000\000\000\000\000\000\000\000\000\000\000l\031\000\000\000\000\000\000\000\000\000\000\000\000\000\000\000\000\000\000\000\000\000\000l\026\000\000\000\000\000\000\000\000\000\000\000\000\000\000\000\000\000\000\000\000\000\000\000\000\000\000\000\000\000\000\000\000\000\000\000\000\000\000\000\000\000\000\000\000\000\000\000\000\000\000\000\000\000\000l\031\000\000\000\000\000\000\000\000\000\000l\031\000\000\000\000\000\000\000\000\000\000l\031\000\000l\031\000\000\000\000\000\000\000\000\000\000\000\000\000\000\000\000\000\000\000\000\000\000l\031\000\000l\031\000\000l\031\000\000\000\000\000\000l\031\000\000\000\000\000\000l\031\000\000l\031\000\000\000\000\000\000l\031\000\000l\026\000\000\236\004\000\000\000\000\000\000\264\024\000\000\264\024\000\000\264\024\000\000\264\024\000\000\264\024\000\000\264\024\000\000\234%\000\000\264\024\000\000\264\024\000\000\264\024\000\000\234%\000\000\264\024\000\000\264\024\000\000\264\024\000\000\264\024\000\000\264\024\000\000\264\024\000\000\264\024\000\000\264\024\000\000\264\024\000\000\264\024\000\000\264\024\000\000\264\024\000\000\264\024\000\000\264\024\000\000\264\024\000\000\264\024\000\000\264\024\000\000\264\024\000\000\264\024\000\000\264\024\000\000\264\024\000\000\264\024\000\000\264\024\000\000\264\024\000\000\264\024\000\000\264\024\000\000\264\024\000\000\264\024\000\000\264\024\000\000\264\024\000\000\264\024\000\000\264\024\000\000\264\024\000\000\264\024\000\000\264\024\000\000\264\024\000\000\264\024\000\000\264\024\000\000\264\024\000\000\264\024\000\000\264\024\000\000\264\024\000\000\264\024\000\000\264\024\000\000\264\024\000\000\264\024\000\000\264\024\000\000\264\024\000\000\264\024\000\000\264\024\000\000\264\024\000\000\244\026\000\000\234%\000\000\264\024\000\000\264\024\000\000\264\024\000\000\264\024\000\000\264\024\000\000\264\024\000\000\264\024\000\000\264\024\000\000\264\024\000\000\264\024\000\000\264\024\000\000\264\024\000\000\264\024\000\000\264\024\000\000\004\002\000\000\264\024\000\000\264\024\000\000\264\024\000\000\004\002\000\000\004\002\000\000\264\024\000\000\264\024\000\000\264\024\000\000\264\024\000\000\264\024\000\000\264\024\000\000\004\002\000\000\264\024\000\000\264\024\000\000\264\024\000\000\264\024\000\000\264\024\000\000\264\024\000\000\264\024\000\000\264\024\000\000\264\024\000\000\264\024\000\000\264\024\000\000\264\024\000\000n\017\000\000\000\000\000\000\000\000\000\000\000\000\000\000\000\000\000\000\000\000\000\000\000\000\000\000l\026\000\000N\037\000\000\000\000\000\000\000\000\000\000\000\000\000\000\000\000\000\000\000\000\000\000\032\026\000\000\000\000\000\000\000\000\000\000\000\000\000\000\000\000\000\000\000\000\000\000\000\000\000\000\000\000\000\000\000\000\000\000\000\000\000\000\000\000\000\000\000\000\000\000l\031\000\000l\031\000\000\000\000\000\000\000\000\000\000l\026\000\000l\031\000\000\000\000\000\000\000\000\000\000\000\000\000\000\000\000\000\000l\031\000\000\000\000\000\000l\031\000\000\000\000\000\000l\031\000\000\000\000\000\000\000\000\000\000\000\000\000\000\000\000\000\000\000\000\000\000\000\000\000\000\000\000\000\000\000\000\000\000\000\000\000\000\000\000\000\000\000\000\000\000\000\000\000\000\000\000\000\000\000\000\000\000\000\000\000\000\000\000\000\000\000\000\000\000\000\000\000\000\000\000\000\000\000\000\000\000\000\000\000\000\000\000\000\000\000\000\000\000l\026\000\000\000\000\000\000\000\000\000\000\000\000\000\000\000\000\000\000\000\000\000\000\000\000\000\000l\026\000\000\000\000\000\000\000\000\000\000\000\000\000\000\000\000\000\000l\031\000\000\000\000\000\000\000\000\000\000l\031\000\000l\031\000\000l\031\000\000l\031\000\000l\031\000\000l\031\000\000\000\000\000\000l\031\000\000l\031\000\000l\031\000\000\000\000\000\000l\031\000\000l\031\000\000l\031\000\000l\031\000\000l\031\000\000l\031\000\000l\031\000\000l\031\000\000l\031\000\000l\031\000\000l\031\000\000l\031\000\000l\031\000\000\000\000\000\000l\031\000\000l\031\000\000\000\000\000\000\236\004\000\000\000\000\000\000\227 \000\000\227 \000\000\227 \000\000\227 \000\000\227 \000\000\227 \000\000\227 \000\000\227 \000\000\227 \000\000\227 \000\000\227 \000\000\227 \000\000\227 \000\000Y\027\000\000\000\000\000\000@\000\000\000@\000\000\000@\000\000\000@\000\000\000@\000\000\000@\000\000\000@\000\000\000@\000\000\000@\000\000\000@\000\000\000@\000\000\000@\000\000\000\000\000\000\000@\000\000\000@\000\000\000r\026\000\000@\000\000\000@\000\000\000V\026\000\000@\000\000\000@\000\000\000\350&\000\000@\000\000\000@\000\000\000@\000\000\000\350&\000\000@\000\000\000\206\027\000\000@\000\000\000\000\000\000\000\350\013\000\000\350\013\000\000\350\013\000\000\350\013\000\000\000\000\000\000\350&\000\000\350&\000\000\350&\000\000\350&\000\000d\014\000\000\210\026\000\000d\014\000\000d\014\000\000d\014\000\000d\014\000\000o\027\000\000d\014\000\000\350&\000\000\314%\000\000\000\000\000\000\332\026\000\000\204\030\000\000/\036\000\000/\036\000\000\204\030\000\000/\036\000\000/\036\000\000/\036\000\000/\036\000\000/\036\000\000/\036\000\000/\036\000\000e\026\000\000/\036\000\000/\036\000\000/\036\000\000/\036\000\000/\036\000\000/\036\000\000/\036\000\000/\036\000\000/\036\000\000/\036\000\000\314%\000\000\000\000\000\000/\036\000\000/\036\000\000/\036\000\000\204\030\000\000\204\030\000\000/\036\000\000\204\030\000\000/\036\000\000/\036\000\000/\036\000\000/\036\000\000/\036\000\000/\036\000\000/\036\000\000/\036\000\000/\036\000\000/\036\000\000/\036\000\000e\026\000\000/\036\000\000/\036\000\000V\027\000\000\311\027\000\000/\036\000\000V\027\000\000/\036\000\000/\036\000\000/\036\000\000V\027\000\000V\027\000\000/\036\000\000\311\027\000\000/\036\000\000V\027\000\000\343\026\000\000/\036\000\000V\027\000\000/\036\000\000V\027\000\000V\027\000\000/\036\000\000/\036\000\000/\036\000\000/\036\000\000/\036\000\000/\036\000\000/\036\000\000/\036\000\000/\036\000\000/\036\000\000/\036\000\000/\036\000\000/\036\000\0002\027\000\000/\036\000\000\314%\000\000\000\000\000\000/\036\000\000/\036\000\000/\036\000\0002\027\000\000/\036\000\000/\036\000\000/\036\000\000/\036\000\000/\036\000\000/\036\000\000/\036\000\000/\036\000\000G\027\000\000V\027\000\000G\027\000\000V\027\000\000V\027\000\000V\027\000\000H\010\000\000V\027\000\000V\027\000\000V\027\000\000V\027\000\000V\027\000\000V\027\000\000V\027\000\000V\027\000\000G\027\000\000/\036\000\000\332\027\000\000V\027\000\000V\027\000\000V\027\000\000\311\027\000\000V\027\000\000V\027\000\000\311\027\000\000V\027\000\000V\027\000\000/\036\000\000/\036\000\000/\036\000\000/\036\000\000/\036\000\000/\036\000\000/\036\000\000/\036\000\000/\036\000\000/\036\000\000/\036\000\000/\036\000\000\375\026\000\000\000\000\000\000/\036\000\000/\036\000\000/\036\000\000/\036\000\000/\036\000\000/\036\000\000V\027\000\000V\027\000\000V\027\000\000H\010\000\000H\010\000\000\355\025\000\000V\027\000\000V\027\000\000V\027\000\000V\027\000\000H\010\000\000/\036\000\000\211\026\000\000H\010\000\000V\027\000\000V\027\000\000H\010\000\000/\036\000\000V\027\000\000H\010\000\000\343\026\000\000V\027\000\000H\010\000\000/\036\000\000H\010\000\000\213\026\000\000H\010\000\000V\027\000\000H\010\000\000V\027\000\000V\027\000\000/\036\000\000V\027\000\000/\036\000\000V\027\000\000/\036\000\000/\036\000\000/\036\000\000/\036\000\000G\027\000\000\000\000\000\000V\027\000\000V\027\000\000V\027\000\000/\036\000\000V\027\000\000V\027\000\000V\027\000\000H\010\000\000H\010\000\000V\027\000\000Y\027\000\000\000\000\000\000\344\027\000\000\000\000\000\000V\027\000\000H\010\000\000H\010\000\000\355\025\000\000H\010\000\000H\010\000\000H\010\000\000H\010\000\000V\027\000\000H\010\000\000H\010\000\000H\010\000\000H\010\000\000H\010\000\000H\010\000\000V\027\000\000H\010\000\000H\010\000\000H\010\000\000H\010\000\000H\010\000\000H\010\000\000H\010\000\000H\010\000\000\314%\000\000\000\000\000\000\204\030\000\000\204\030\000\000\204\030\000\000\204\030\000\000-\027\000\000\204\030\000\000\204\030\000\000\204\030\000\000\204\030\000\000\204\030\000\000\204\030\000\000\204\030\000\000\204\030\000\000\204\030\000\000\204\030\000\000\204\030\000\000\204\030\000\000\177\026\000\000\204\030\000\000\204\030\000\000\204\030\000\000\204\030\000\000\204\030\000\000\204\030\000\000\204\030\000\000\204\030\000\000\204\030\000\000\204\030\000\000\204\030\000\000\204\030\000\000\204\030\000\000\204\030\000\000\204\030\000\000\204\030\000\000\204\030\000\000\204\030\000\000\204\030\000\000\204\030\000\000\204\030\000\000\204\030\000\000\204\030\000\000\204\030\000\000\204\030\000\000\204\030\000\000\204\030\000\000\204\030\000\000\204\030\000\000\204\030\000\000\332\026\000\000-\027\000\000\204\030\000\000\204\030\000\000\204\030\000\000\204\030\000\000/\036\000\0002\027\000\000\375\026\000\000\000\000\000\000H\010\000\000H\010\000\000H\010\000\000H\010\000\000H\010\000\000H\010\000\000H\010\000\000H\010\000\000H\010\000\000H\010\000\000H\010\000\000H\010\000\000H\010\000\000H\010\000\000H\010\000\000H\010\000\000H\010\000\000V\027\000\000V\027\000\000V\027\000\000V\027\000\000V\027\000\000/\036\000\000/\036\000\000/\036\000\000H\010\000\000H\010\000\000Y\027\000\000\000\000\000\000H\010\000\000H\010\000\000H\010\000\000H\010\000\000H\010\000\000H\010\000\000H\010\000\000H\010\000\000H\010\000\000\375\026\000\000\000\000\000\000\361\026\000\000\351#\000\000H\010\000\000H\010\000\000\361\026\000\000H\010\000\000\375\026\000\000\000\000\000\000\204\030\000\000\204\030\000\000\204\030\000\000\204\030\000\000\204\030\000\000/\036\000\000/\036\000\000/\036\000\000/\036\000\000/\036\000\000/\036\000\000/\036\000\000V\027\000\000V\027\000\000V\027\000\000H\010\000\000H\010\000\000H\010\000\000\214\026\000\000H\010\000\000H\010\000\000V\027\000\000H\010\000\000V\027\000\000V\027\000\000H\010\000\000H\010\000\000V\027\000\000H\010\000\000V\027\000\000V\027\000\000H\010\000\000V\027\000\000\375\026\000\000\000\000\000\000/\036\000\000G\027\000\000/\036\000\000/\036\000\000/\036\000\000V\027\000\000H\010\000\000H\010\000\000H\010\000\000H\010\000\000\000\000\000\000/\036\000\000V\027\000\000/\036\000\000V\027\000\000V\027\000\000V\027\000\000H\010\000\000H\010\000\000H\010\000\000H\010\000\000H\010\000\000H\010\000\000H\010\000\000H\010\000\000H\010\000\000H\010\000\000H\010\000\000Y\027\000\000\000\000\000\000/\036\000\000/\036\000\000/\036\000\000/\036\000\000V\027\000\000V\027\000\000V\027\000\000H\010\000\000H\010\000\000H\010\000\000H\010\000\000H\010\000\000\000\000\000\000\024\034\000\000\024\034\000\000\024\034\000\000\024\034\000\000\024\034\000\000\024\034\000\0000\027\000\000\024\034\000\000\344\027\000\000\000\000\000\000\351#\000\000\351#\000\000\351#\000\000\351#\000\000\351#\000\000N\030\000\000\351#\000\000N\030\000\000N\030\000\000e\004\000\000e\004\000\000e\004\000\000\000\000\000\000\351#\000\000e\004\000\000e\004\000\000e\004\000\000e\004\000\000e\004\000\000e\004\000\000e\004\000\000e\004\000\000e\004\000\000e\004\000\000e\004\000\000\024\034\000\000\000\000\000\000e\004\000\000e\004\000\000e\004\000\000e\004\000\000e\004\000\000e\004\000\000e\004\000\000e\004\000\000e\004\000\000e\004\000\000e\004\000\000e\004\000\000e\004\000\000e\004\000\000e\004\000\000e\004\000\000e\004\000\000e\004\000\000e\004\000\000e\004\000\000e\004\000\000e\004\000\000e\004\000\000e\004\000\000e\004\000\000e\004\000\000e\004\000\000e\004\000\000N\030\000\000e\004\000\000\351#\000\000\351#\000\000e\004\000\000\000\000\000\000\351#\000\000\351#\000\000\351#\000\000\351#\000\000\351#\000\000\351#\000\000\351#\000\000\351#\000\000\351#\000\000\351#\000\000\351#\000\000\351#\000\000\351#\000\000\351#\000\000\351#\000\000\351#\000\000\351#\000\000\351#\000\000\351#\000\000\351#\000\000\351#\000\000\344\027\000\000\000\000\000\000\351#\000\000\351#\000\000\351#\000\000\351#\000\000\351#\000\000\351#\000\000\351#\000\000\351#\000\000\351#\000\000\351#\000\000\351#\000\000\351#\000\000H\010\000\000H\010\000\000H\010\000\000H\010\000\000H\010\000\000H\010\000\000H\010\000\000H\010\000\000H\010\000\000H\010\000\000H\010\000\000H\010\000\000H\010\000\000H\010\000\000H\010\000\000H\010\000\000H\010\000\000H\010\000\000H\010\000\000H\010\000\000\351#\000\000\351#\000\000\000\000\000\000e\004\000\000e\004\000\000e\004\000\000e\004\000\000e\004\000\000e\004\000\000e\004\000\000e\004\000\000N\030\000\000e\004\000\000\351#\000\000\351#\000\000\351#\000\000\351#\000\000\351#\000\000\351#\000\000\351#\000\000\351#\000\000\351#\000\000\351#\000\000\177\027\000\000e\004\000\000e\004\000\000e\004\000\000e\004\000\000e\004\000\000\000\000\000\000^\026\000\000\024\034\000\000\024\034\000\000\024\034\000\000\024\034\000\000\024\034\000\000\024\034\000\000\024\034\000\000\024\034\000\000\024\034\000\000\024\034\000\000e\004\000\000e\004\000\000e\004\000\000e\004\000\000e\004\000\000e\004\000\000e\004\000\000e\004\000\000e\004\000\000e\004\000\000e\004\000\000e\004\000\000e\004\000\000\024\034\000\000\000\000\000\000e\004\000\000e\004\000\000e\004\000\000e\004\000\000e\004\000\000e\004\000\000e\004\000\000e\004\000\000e\004\000\000e\004\000\000e\004\000\000e\004\000\000e\004\000\000e\004\000\000e\004\000\000e\004\000\000e\004\000\000\344\027\000\000\000\000\000\000\024\034\000\000\024\034\000\000^\026\000\000\024\034\000\000\024\034\000\000\024\034\000\000\024\034\000\000\024\034\000\000^\026\000\000\024\034\000\000e\004\000\000e\004\000\000e\004\000\000e\004\000\000\024\034\000\000\024\034\000\000e\004\000\000\024\034\000\000\204\026\000\000\000\000\000\000e\004\000\000e\004\000\000e\004\000\000e\004\000\000e\004\000\000e\004\000\000e\004\000\000e\004\000\000e\004\000\000e\004\000\000e\004\000\000e\004\000\000e\004\000\000e\004\000\000e\004\000\000e\004\000\000e\004\000\000e\004\000\000e\004\000\000e\004\000\000e\004\000\000e\004\000\000e\004\000\000e\004\000\000e\004\000\000e\004\000\000e\004\000\000e\004\000\000e\004\000\000e\004\000\000e\004\000\000\024\034\000\000\000\000\000\000\204\030\000\000\t\005\000\000\t\005\000\000\t\005\000\000\t\005\000\000\204\030\000\000\204\030\000\000/\036\000\000/\036\000\000/\036\000\000H\010\000\000V\027\000\000\221\027\000\000H\010\000\000H\010\000\000H\010\000\000H\010\000\000H\010\000\000H\010\000\000H\010\000\000H\010\000\000\351#\000\000\351#\000\000\351#\000\000\344\027\000\000\000\000\000\000\351#\000\000\351#\000\000\351#\000\000\351#\000\000\351#\000\000\351#\000\000\351#\000\000\351#\000\000\351#\000\000\351#\000\000\351#\000\000\351#\000\000\351#\000\000\351#\000\000\351#\000\000\351#\000\000\351#\000\000\351#\000\000\351#\000\000\351#\000\000\351#\000\000\351#\000\000\351#\000\000\351#\000\000\351#\000\000\351#\000\000\351#\000\000\351#\000\000\351#\000\000\351#\000\000\000\000\000\000\024\034\000\000\024\034\000\000\024\034\000\000\024\034\000\000\024\034\000\000\024\034\000\000e\004\000\000\024\034\000\000e\004\000\000\024\034\000\000e\004\000\000e\004\000\000\024\034\000\000e\004\000\000e\004\000\000\024\034\000\000\024\034\000\000^\026\000\000\024\034\000\000\024\034\000\000\024\034\000\000\024\034\000\000\024\034\000\000\024\034\000\000\024\034\000\000\000\000\000\000e\004\000\000e\004\000\000e\004\000\000e\004\000\000e\004\000\000e\004\000\000e\004\000\000e\004\000\000e\004\000\000e\004\000\000e\004\000\000e\004\000\000e\004\000\000e\004\000\000e\004\000\000e\004\000\000e\004\000\000e\004\000\000e\004\000\0008\027\000\000e\004\000\000^\026\000\000e\004\000\000e\004\000\000e\004\000\000\024\034\000\000e\004\000\000e\004\000\000\024\034\000\000\024\034\000\000\024\034\000\000e\004\000\000e\004\000\000\024\034\000\000\000\000\000\000e\004\000\000^\026\000\000\024\034\000\000e\004\000\000e\004\000\000e\004\000\000e\004\000\000e\004\000\000\024\034\000\000e\004\000\000e\004\000\000^\026\000\000\024\034\000\000e\004\000\000\370\027\000\000e\004\000\000e\004\000\000e\004\000\000e\004\000\000e\004\000\000e\004\000\000e\004\000\000e\004\000\000e\004\000\000\024\034\000\000\024\034\000\000e\004\000\000e\004\000\000\000\000\000\000\024\034\000\000\024\034\000\0008\027\000\000\024\034\000\000\024\034\000\000e\004\000\000\024\034\000\000\024\034\000\000\024\034\000\000\024\034\000\000\024\034\000\000\024\034\000\000\024\034\000\000\024\034\000\000\024\034\000\000\024\034\000\000\024\034\000\000\024\034\000\000\024\034\000\000\024\034\000\000\024\034\000\000\024\034\000\000\024\034\000\000\024\034\000\000\024\034\000\000\024\034\000\000\000\000\000\000\024\034\000\000\024\034\000\000\024\034\000\000\024\034\000\000\024\034\000\000\024\034\000\000\024\034\000\000\024\034\000\000\024\034\000\000\024\034\000\000\350\026\000\000\024\034\000\000\024\034\000\000\024\034\000\000\024\034\000\000\024\034\000\000\024\034\000\0008\027\000\000\024\034\000\000\024\034\000\000\024\034\000\000\024\034\000\000e\004\000\000\024\034\000\000\024\034\000\000\024\034\000\000^\026\000\000^\026\000\000e\004\000\000\024\034\000\000\000\000\000\000\024\034\000\000e\004\000\000e\004\000\0008\027\000\000\024\034\000\000\024\034\000\000e\004\000\000e\004\000\000\024\034\000\000^\026\000\000e\004\000\000\024\034\000\000e\004\000\000e\004\000\000\024\034\000\000^\026\000\000e\004\000\000\024\034\000\000^\026\000\000\024\034\000\0008\027\000\000e\004\000\000\024\034\000\000\024\034\000\000e\004\000\000e\004\000\000\024\034\000\000\024\034\000\000\000\000\000\000^\026\000\000e\004\000\000e\004\000\000e\004\000\000e\004\000\000e\004\000\000e\004\000\000e\004\000\000e\004\000\000e\004\000\000e\004\000\000e\004\000\000e\004\000\000e\004\000\000e\004\000\000e\004\000\000^\026\000\000\024\034\000\000\024\034\000\000\024\034\000\000\024\034\000\000\024\034\000\000\024\034\000\000\024\034\000\000Q\026\000\000\000\000\000\000\024\034\000\000\024\034\000\000\024\034\000\000\024\034\000\000\024\034\000\000\024\034\000\000\024\034\000\000\024\034\000\000\024\034\000\000\024\034\000\000\024\034\000\000\024\034\000\000\024\034\000\000^\026\000\000\024\034\000\000^\026\000\000\024\034\000\0008\027\000\000e\004\000\000e\004\000\000\024\034\000\000e\004\000\000e\004\000\000e\004\000\000e\004\000\000e\004\000\000e\004\000\000\024\034\000\000\024\034\000\000\204\026\000\000\000\000\000\000e\004\000\0008\027\000\000e\004\000\000\024\034\000\000\024\034\000\000\024\034\000\000\024\034\000\000\024\034\000\000\024\034\000\000\024\034\000\000\024\034\000\000\024\034\000\000^\026\000\000\024\034\000\000e\004\000\000\024\034\000\000^\026\000\000e\004\000\000e\004\000\000e\004\000\000e\004\000\000e\004\000\000e\004\000\000e\004\000\000e\004\000\000e\004\000\000e\004\000\000\204\026\000\000\000\000\000\000\024\034\000\000\024\034\000\000\024\034\000\000\024\034\000\000\024\034\000\000\024\034\000\000e\004\000\000e\004\000\000e\004\000\000e\004\000\000e\004\000\000e\004\000\000e\004\000\000e\004\000\000e\004\000\000e\004\000\000e\004\000\000e\004\000\000e\004\000\000e\004\000\000e\004\000\000e\004\000\000\024\034\000\000e\004\000\000\000\000\000\000\024\034\000\000\024\034\000\000\024\034\000\000e\004\000\000^\026\000\000e\004\000\000e\004\000\000\024\034\000\000\024\034\000\000\024\034\000\000\024\034\000\0008\027\000\0008\027\000\000^\026\000\000\024\034\000\000\024\034\000\000e\004\000\000\024\034\000\000\024\034\000\000e\004\000\000e\004\000\000e\004\000\000e\004\000\000e\004\000\000e\004\000\000e\004\000\000^\026\000\000\024\034\000\000e\004\000\000Q\026\000\000"
      }
    }
  }
}
node {
  name: "Train/TrainInput/Size"
  op: "Const"
  attr {
    key: "_output_shapes"
    value {
      list {
        shape {
        }
      }
    }
  }
  attr {
    key: "dtype"
    value {
      type: DT_INT32
    }
  }
  attr {
    key: "value"
    value {
      tensor {
        dtype: DT_INT32
        tensor_shape {
        }
        int_val: 2910
      }
    }
  }
}
node {
  name: "Train/TrainInput/floordiv/y"
  op: "Const"
  attr {
    key: "_output_shapes"
    value {
      list {
        shape {
        }
      }
    }
  }
  attr {
    key: "dtype"
    value {
      type: DT_INT32
    }
  }
  attr {
    key: "value"
    value {
      tensor {
        dtype: DT_INT32
        tensor_shape {
        }
        int_val: 20
      }
    }
  }
}
node {
  name: "Train/TrainInput/floordiv"
  op: "Div"
  input: "Train/TrainInput/Size"
  input: "Train/TrainInput/floordiv/y"
  attr {
    key: "T"
    value {
      type: DT_INT32
    }
  }
  attr {
    key: "_output_shapes"
    value {
      list {
        shape {
        }
      }
    }
  }
}
node {
  name: "Train/TrainInput/mul/x"
  op: "Const"
  attr {
    key: "_output_shapes"
    value {
      list {
        shape {
        }
      }
    }
  }
  attr {
    key: "dtype"
    value {
      type: DT_INT32
    }
  }
  attr {
    key: "value"
    value {
      tensor {
        dtype: DT_INT32
        tensor_shape {
        }
        int_val: 20
      }
    }
  }
}
node {
  name: "Train/TrainInput/mul"
  op: "Mul"
  input: "Train/TrainInput/mul/x"
  input: "Train/TrainInput/floordiv"
  attr {
    key: "T"
    value {
      type: DT_INT32
    }
  }
  attr {
    key: "_output_shapes"
    value {
      list {
        shape {
        }
      }
    }
  }
}
node {
  name: "Train/TrainInput/strided_slice/pack"
  op: "Const"
  attr {
    key: "_output_shapes"
    value {
      list {
        shape {
          dim {
            size: 1
          }
        }
      }
    }
  }
  attr {
    key: "dtype"
    value {
      type: DT_INT32
    }
  }
  attr {
    key: "value"
    value {
      tensor {
        dtype: DT_INT32
        tensor_shape {
          dim {
            size: 1
          }
        }
        int_val: 0
      }
    }
  }
}
node {
  name: "Train/TrainInput/strided_slice/pack_1"
  op: "Pack"
  input: "Train/TrainInput/mul"
  attr {
    key: "N"
    value {
      i: 1
    }
  }
  attr {
    key: "T"
    value {
      type: DT_INT32
    }
  }
  attr {
    key: "_output_shapes"
    value {
      list {
        shape {
          dim {
            size: 1
          }
        }
      }
    }
  }
  attr {
    key: "axis"
    value {
      i: 0
    }
  }
}
node {
  name: "Train/TrainInput/strided_slice/pack_2"
  op: "Const"
  attr {
    key: "_output_shapes"
    value {
      list {
        shape {
          dim {
            size: 1
          }
        }
      }
    }
  }
  attr {
    key: "dtype"
    value {
      type: DT_INT32
    }
  }
  attr {
    key: "value"
    value {
      tensor {
        dtype: DT_INT32
        tensor_shape {
          dim {
            size: 1
          }
        }
        int_val: 1
      }
    }
  }
}
node {
  name: "Train/TrainInput/strided_slice"
  op: "StridedSlice"
  input: "Train/TrainInput/raw_data"
  input: "Train/TrainInput/strided_slice/pack"
  input: "Train/TrainInput/strided_slice/pack_1"
  input: "Train/TrainInput/strided_slice/pack_2"
  attr {
    key: "Index"
    value {
      type: DT_INT32
    }
  }
  attr {
    key: "T"
    value {
      type: DT_INT32
    }
  }
  attr {
    key: "_output_shapes"
    value {
      list {
        shape {
          unknown_rank: true
        }
      }
    }
  }
  attr {
    key: "begin_mask"
    value {
      i: 0
    }
  }
  attr {
    key: "ellipsis_mask"
    value {
      i: 0
    }
  }
  attr {
    key: "end_mask"
    value {
      i: 0
    }
  }
  attr {
    key: "new_axis_mask"
    value {
      i: 0
    }
  }
  attr {
    key: "shrink_axis_mask"
    value {
      i: 0
    }
  }
}
node {
  name: "Train/TrainInput/Reshape/shape/0"
  op: "Const"
  attr {
    key: "_output_shapes"
    value {
      list {
        shape {
        }
      }
    }
  }
  attr {
    key: "dtype"
    value {
      type: DT_INT32
    }
  }
  attr {
    key: "value"
    value {
      tensor {
        dtype: DT_INT32
        tensor_shape {
        }
        int_val: 20
      }
    }
  }
}
node {
  name: "Train/TrainInput/Reshape/shape"
  op: "Pack"
  input: "Train/TrainInput/Reshape/shape/0"
  input: "Train/TrainInput/floordiv"
  attr {
    key: "N"
    value {
      i: 2
    }
  }
  attr {
    key: "T"
    value {
      type: DT_INT32
    }
  }
  attr {
    key: "_output_shapes"
    value {
      list {
        shape {
          dim {
            size: 2
          }
        }
      }
    }
  }
  attr {
    key: "axis"
    value {
      i: 0
    }
  }
}
node {
  name: "Train/TrainInput/Reshape"
  op: "Reshape"
  input: "Train/TrainInput/strided_slice"
  input: "Train/TrainInput/Reshape/shape"
  attr {
    key: "T"
    value {
      type: DT_INT32
    }
  }
  attr {
    key: "Tshape"
    value {
      type: DT_INT32
    }
  }
  attr {
    key: "_output_shapes"
    value {
      list {
        shape {
          dim {
            size: 20
          }
          dim {
            size: -1
          }
        }
      }
    }
  }
}
node {
  name: "Train/TrainInput/sub/y"
  op: "Const"
  attr {
    key: "_output_shapes"
    value {
      list {
        shape {
        }
      }
    }
  }
  attr {
    key: "dtype"
    value {
      type: DT_INT32
    }
  }
  attr {
    key: "value"
    value {
      tensor {
        dtype: DT_INT32
        tensor_shape {
        }
        int_val: 1
      }
    }
  }
}
node {
  name: "Train/TrainInput/sub"
  op: "Sub"
  input: "Train/TrainInput/floordiv"
  input: "Train/TrainInput/sub/y"
  attr {
    key: "T"
    value {
      type: DT_INT32
    }
  }
  attr {
    key: "_output_shapes"
    value {
      list {
        shape {
        }
      }
    }
  }
}
node {
  name: "Train/TrainInput/floordiv_1/y"
  op: "Const"
  attr {
    key: "_output_shapes"
    value {
      list {
        shape {
        }
      }
    }
  }
  attr {
    key: "dtype"
    value {
      type: DT_INT32
    }
  }
  attr {
    key: "value"
    value {
      tensor {
        dtype: DT_INT32
        tensor_shape {
        }
        int_val: 20
      }
    }
  }
}
node {
  name: "Train/TrainInput/floordiv_1"
  op: "Div"
  input: "Train/TrainInput/sub"
  input: "Train/TrainInput/floordiv_1/y"
  attr {
    key: "T"
    value {
      type: DT_INT32
    }
  }
  attr {
    key: "_output_shapes"
    value {
      list {
        shape {
        }
      }
    }
  }
}
node {
  name: "Train/TrainInput/assert_positive/Const"
  op: "Const"
  attr {
    key: "_output_shapes"
    value {
      list {
        shape {
        }
      }
    }
  }
  attr {
    key: "dtype"
    value {
      type: DT_INT32
    }
  }
  attr {
    key: "value"
    value {
      tensor {
        dtype: DT_INT32
        tensor_shape {
        }
        int_val: 0
      }
    }
  }
}
node {
  name: "Train/TrainInput/assert_positive/assert_less/Less"
  op: "Less"
  input: "Train/TrainInput/assert_positive/Const"
  input: "Train/TrainInput/floordiv_1"
  attr {
    key: "T"
    value {
      type: DT_INT32
    }
  }
  attr {
    key: "_output_shapes"
    value {
      list {
        shape {
        }
      }
    }
  }
}
node {
  name: "Train/TrainInput/assert_positive/assert_less/Const"
  op: "Const"
  attr {
    key: "_output_shapes"
    value {
      list {
        shape {
          dim {
          }
        }
      }
    }
  }
  attr {
    key: "dtype"
    value {
      type: DT_INT32
    }
  }
  attr {
    key: "value"
    value {
      tensor {
        dtype: DT_INT32
        tensor_shape {
          dim {
          }
        }
      }
    }
  }
}
node {
  name: "Train/TrainInput/assert_positive/assert_less/All"
  op: "All"
  input: "Train/TrainInput/assert_positive/assert_less/Less"
  input: "Train/TrainInput/assert_positive/assert_less/Const"
  attr {
    key: "Tidx"
    value {
      type: DT_INT32
    }
  }
  attr {
    key: "_output_shapes"
    value {
      list {
        shape {
        }
      }
    }
  }
  attr {
    key: "keep_dims"
    value {
      b: false
    }
  }
}
node {
  name: "Train/TrainInput/assert_positive/assert_less/Assert/AssertGuard/Switch"
  op: "Switch"
  input: "Train/TrainInput/assert_positive/assert_less/All"
  input: "Train/TrainInput/assert_positive/assert_less/All"
  attr {
    key: "T"
    value {
      type: DT_BOOL
    }
  }
  attr {
    key: "_output_shapes"
    value {
      list {
        shape {
        }
        shape {
        }
      }
    }
  }
}
node {
  name: "Train/TrainInput/assert_positive/assert_less/Assert/AssertGuard/switch_t"
  op: "Identity"
  input: "Train/TrainInput/assert_positive/assert_less/Assert/AssertGuard/Switch:1"
  attr {
    key: "T"
    value {
      type: DT_BOOL
    }
  }
  attr {
    key: "_output_shapes"
    value {
      list {
        shape {
        }
      }
    }
  }
}
node {
  name: "Train/TrainInput/assert_positive/assert_less/Assert/AssertGuard/switch_f"
  op: "Identity"
  input: "Train/TrainInput/assert_positive/assert_less/Assert/AssertGuard/Switch"
  attr {
    key: "T"
    value {
      type: DT_BOOL
    }
  }
  attr {
    key: "_output_shapes"
    value {
      list {
        shape {
        }
      }
    }
  }
}
node {
  name: "Train/TrainInput/assert_positive/assert_less/Assert/AssertGuard/pred_id"
  op: "Identity"
  input: "Train/TrainInput/assert_positive/assert_less/All"
  attr {
    key: "T"
    value {
      type: DT_BOOL
    }
  }
  attr {
    key: "_output_shapes"
    value {
      list {
        shape {
        }
      }
    }
  }
}
node {
  name: "Train/TrainInput/assert_positive/assert_less/Assert/AssertGuard/NoOp"
  op: "NoOp"
  input: "^Train/TrainInput/assert_positive/assert_less/Assert/AssertGuard/switch_t"
}
node {
  name: "Train/TrainInput/assert_positive/assert_less/Assert/AssertGuard/control_dependency"
  op: "Identity"
  input: "Train/TrainInput/assert_positive/assert_less/Assert/AssertGuard/switch_t"
  input: "^Train/TrainInput/assert_positive/assert_less/Assert/AssertGuard/NoOp"
  attr {
    key: "T"
    value {
      type: DT_BOOL
    }
  }
  attr {
    key: "_class"
    value {
      list {
        s: "loc:@Train/TrainInput/assert_positive/assert_less/Assert/AssertGuard/switch_t"
      }
    }
  }
  attr {
    key: "_output_shapes"
    value {
      list {
        shape {
        }
      }
    }
  }
}
node {
  name: "Train/TrainInput/assert_positive/assert_less/Assert/AssertGuard/Assert/data_0"
  op: "Const"
  input: "^Train/TrainInput/assert_positive/assert_less/Assert/AssertGuard/switch_f"
  attr {
    key: "_output_shapes"
    value {
      list {
        shape {
        }
      }
    }
  }
  attr {
    key: "dtype"
    value {
      type: DT_STRING
    }
  }
  attr {
    key: "value"
    value {
      tensor {
        dtype: DT_STRING
        tensor_shape {
        }
        string_val: "epoch_size == 0, decrease batch_size or num_steps"
      }
    }
  }
}
node {
  name: "Train/TrainInput/assert_positive/assert_less/Assert/AssertGuard/Assert/data_1"
  op: "Const"
  input: "^Train/TrainInput/assert_positive/assert_less/Assert/AssertGuard/switch_f"
  attr {
    key: "_output_shapes"
    value {
      list {
        shape {
        }
      }
    }
  }
  attr {
    key: "dtype"
    value {
      type: DT_STRING
    }
  }
  attr {
    key: "value"
    value {
      tensor {
        dtype: DT_STRING
        tensor_shape {
        }
        string_val: "Condition x > 0 did not hold element-wise: x = "
      }
    }
  }
}
node {
  name: "Train/TrainInput/assert_positive/assert_less/Assert/AssertGuard/Assert/data_2"
  op: "Const"
  input: "^Train/TrainInput/assert_positive/assert_less/Assert/AssertGuard/switch_f"
  attr {
    key: "_output_shapes"
    value {
      list {
        shape {
        }
      }
    }
  }
  attr {
    key: "dtype"
    value {
      type: DT_STRING
    }
  }
  attr {
    key: "value"
    value {
      tensor {
        dtype: DT_STRING
        tensor_shape {
        }
        string_val: "Train/TrainInput/floordiv_1:0"
      }
    }
  }
}
node {
  name: "Train/TrainInput/assert_positive/assert_less/Assert/AssertGuard/Assert/Switch"
  op: "Switch"
  input: "Train/TrainInput/assert_positive/assert_less/All"
  input: "Train/TrainInput/assert_positive/assert_less/Assert/AssertGuard/pred_id"
  attr {
    key: "T"
    value {
      type: DT_BOOL
    }
  }
  attr {
    key: "_class"
    value {
      list {
        s: "loc:@Train/TrainInput/assert_positive/assert_less/All"
      }
    }
  }
  attr {
    key: "_output_shapes"
    value {
      list {
        shape {
        }
        shape {
        }
      }
    }
  }
}
node {
  name: "Train/TrainInput/assert_positive/assert_less/Assert/AssertGuard/Assert/Switch_1"
  op: "Switch"
  input: "Train/TrainInput/floordiv_1"
  input: "Train/TrainInput/assert_positive/assert_less/Assert/AssertGuard/pred_id"
  attr {
    key: "T"
    value {
      type: DT_INT32
    }
  }
  attr {
    key: "_class"
    value {
      list {
        s: "loc:@Train/TrainInput/floordiv_1"
      }
    }
  }
  attr {
    key: "_output_shapes"
    value {
      list {
        shape {
        }
        shape {
        }
      }
    }
  }
}
node {
  name: "Train/TrainInput/assert_positive/assert_less/Assert/AssertGuard/Assert"
  op: "Assert"
  input: "Train/TrainInput/assert_positive/assert_less/Assert/AssertGuard/Assert/Switch"
  input: "Train/TrainInput/assert_positive/assert_less/Assert/AssertGuard/Assert/data_0"
  input: "Train/TrainInput/assert_positive/assert_less/Assert/AssertGuard/Assert/data_1"
  input: "Train/TrainInput/assert_positive/assert_less/Assert/AssertGuard/Assert/data_2"
  input: "Train/TrainInput/assert_positive/assert_less/Assert/AssertGuard/Assert/Switch_1"
  attr {
    key: "T"
    value {
      list {
        type: DT_STRING
        type: DT_STRING
        type: DT_STRING
        type: DT_INT32
      }
    }
  }
  attr {
    key: "summarize"
    value {
      i: 3
    }
  }
}
node {
  name: "Train/TrainInput/assert_positive/assert_less/Assert/AssertGuard/control_dependency_1"
  op: "Identity"
  input: "Train/TrainInput/assert_positive/assert_less/Assert/AssertGuard/switch_f"
  input: "^Train/TrainInput/assert_positive/assert_less/Assert/AssertGuard/Assert"
  attr {
    key: "T"
    value {
      type: DT_BOOL
    }
  }
  attr {
    key: "_class"
    value {
      list {
        s: "loc:@Train/TrainInput/assert_positive/assert_less/Assert/AssertGuard/switch_f"
      }
    }
  }
  attr {
    key: "_output_shapes"
    value {
      list {
        shape {
        }
      }
    }
  }
}
node {
  name: "Train/TrainInput/assert_positive/assert_less/Assert/AssertGuard/Merge"
  op: "Merge"
  input: "Train/TrainInput/assert_positive/assert_less/Assert/AssertGuard/control_dependency_1"
  input: "Train/TrainInput/assert_positive/assert_less/Assert/AssertGuard/control_dependency"
  attr {
    key: "N"
    value {
      i: 2
    }
  }
  attr {
    key: "T"
    value {
      type: DT_BOOL
    }
  }
  attr {
    key: "_output_shapes"
    value {
      list {
        shape {
        }
        shape {
        }
      }
    }
  }
}
node {
  name: "Train/TrainInput/epoch_size"
  op: "Identity"
  input: "Train/TrainInput/floordiv_1"
  input: "^Train/TrainInput/assert_positive/assert_less/Assert/AssertGuard/Merge"
  attr {
    key: "T"
    value {
      type: DT_INT32
    }
  }
  attr {
    key: "_output_shapes"
    value {
      list {
        shape {
        }
      }
    }
  }
}
node {
  name: "Train/TrainInput/input_producer/range/start"
  op: "Const"
  attr {
    key: "_output_shapes"
    value {
      list {
        shape {
        }
      }
    }
  }
  attr {
    key: "dtype"
    value {
      type: DT_INT32
    }
  }
  attr {
    key: "value"
    value {
      tensor {
        dtype: DT_INT32
        tensor_shape {
        }
        int_val: 0
      }
    }
  }
}
node {
  name: "Train/TrainInput/input_producer/range/delta"
  op: "Const"
  attr {
    key: "_output_shapes"
    value {
      list {
        shape {
        }
      }
    }
  }
  attr {
    key: "dtype"
    value {
      type: DT_INT32
    }
  }
  attr {
    key: "value"
    value {
      tensor {
        dtype: DT_INT32
        tensor_shape {
        }
        int_val: 1
      }
    }
  }
}
node {
  name: "Train/TrainInput/input_producer/range"
  op: "Range"
  input: "Train/TrainInput/input_producer/range/start"
  input: "Train/TrainInput/epoch_size"
  input: "Train/TrainInput/input_producer/range/delta"
  attr {
    key: "Tidx"
    value {
      type: DT_INT32
    }
  }
  attr {
    key: "_output_shapes"
    value {
      list {
        shape {
          dim {
            size: -1
          }
        }
      }
    }
  }
}
node {
  name: "Train/TrainInput/input_producer/fraction_of_32_full/fraction_of_32_full"
  op: "FIFOQueue"
  attr {
    key: "_output_shapes"
    value {
      list {
        shape {
          dim {
            size: 2
          }
        }
      }
    }
  }
  attr {
    key: "capacity"
    value {
      i: 32
    }
  }
  attr {
    key: "component_types"
    value {
      list {
        type: DT_INT32
      }
    }
  }
  attr {
    key: "container"
    value {
      s: ""
    }
  }
  attr {
    key: "shapes"
    value {
      list {
        shape {
        }
      }
    }
  }
  attr {
    key: "shared_name"
    value {
      s: ""
    }
  }
}
node {
  name: "Train/TrainInput/input_producer/fraction_of_32_full/fraction_of_32_full_EnqueueMany"
  op: "QueueEnqueueMany"
  input: "Train/TrainInput/input_producer/fraction_of_32_full/fraction_of_32_full"
  input: "Train/TrainInput/input_producer/range"
  attr {
    key: "Tcomponents"
    value {
      list {
        type: DT_INT32
      }
    }
  }
  attr {
    key: "_class"
    value {
      list {
        s: "loc:@Train/TrainInput/input_producer/fraction_of_32_full/fraction_of_32_full"
      }
    }
  }
  attr {
    key: "timeout_ms"
    value {
      i: -1
    }
  }
}
node {
  name: "Train/TrainInput/input_producer/fraction_of_32_full/fraction_of_32_full_Close"
  op: "QueueClose"
  input: "Train/TrainInput/input_producer/fraction_of_32_full/fraction_of_32_full"
  attr {
    key: "_class"
    value {
      list {
        s: "loc:@Train/TrainInput/input_producer/fraction_of_32_full/fraction_of_32_full"
      }
    }
  }
  attr {
    key: "cancel_pending_enqueues"
    value {
      b: false
    }
  }
}
node {
  name: "Train/TrainInput/input_producer/fraction_of_32_full/fraction_of_32_full_Close_1"
  op: "QueueClose"
  input: "Train/TrainInput/input_producer/fraction_of_32_full/fraction_of_32_full"
  attr {
    key: "_class"
    value {
      list {
        s: "loc:@Train/TrainInput/input_producer/fraction_of_32_full/fraction_of_32_full"
      }
    }
  }
  attr {
    key: "cancel_pending_enqueues"
    value {
      b: true
    }
  }
}
node {
  name: "Train/TrainInput/input_producer/fraction_of_32_full/fraction_of_32_full_Size"
  op: "QueueSize"
  input: "Train/TrainInput/input_producer/fraction_of_32_full/fraction_of_32_full"
  attr {
    key: "_class"
    value {
      list {
        s: "loc:@Train/TrainInput/input_producer/fraction_of_32_full/fraction_of_32_full"
      }
    }
  }
  attr {
    key: "_output_shapes"
    value {
      list {
        shape {
        }
      }
    }
  }
}
node {
  name: "Train/TrainInput/input_producer/fraction_of_32_full/Cast"
  op: "Cast"
  input: "Train/TrainInput/input_producer/fraction_of_32_full/fraction_of_32_full_Size"
  attr {
    key: "DstT"
    value {
      type: DT_FLOAT
    }
  }
  attr {
    key: "SrcT"
    value {
      type: DT_INT32
    }
  }
  attr {
    key: "_output_shapes"
    value {
      list {
        shape {
        }
      }
    }
  }
}
node {
  name: "Train/TrainInput/input_producer/fraction_of_32_full/mul/y"
  op: "Const"
  attr {
    key: "_output_shapes"
    value {
      list {
        shape {
        }
      }
    }
  }
  attr {
    key: "dtype"
    value {
      type: DT_FLOAT
    }
  }
  attr {
    key: "value"
    value {
      tensor {
        dtype: DT_FLOAT
        tensor_shape {
        }
        float_val: 0.03125
      }
    }
  }
}
node {
  name: "Train/TrainInput/input_producer/fraction_of_32_full/mul"
  op: "Mul"
  input: "Train/TrainInput/input_producer/fraction_of_32_full/Cast"
  input: "Train/TrainInput/input_producer/fraction_of_32_full/mul/y"
  attr {
    key: "T"
    value {
      type: DT_FLOAT
    }
  }
  attr {
    key: "_output_shapes"
    value {
      list {
        shape {
        }
      }
    }
  }
}
node {
  name: "Train/TrainInput/input_producer/fraction_of_32_full/ScalarSummary/tags"
  op: "Const"
  attr {
    key: "_output_shapes"
    value {
      list {
        shape {
        }
      }
    }
  }
  attr {
    key: "dtype"
    value {
      type: DT_STRING
    }
  }
  attr {
    key: "value"
    value {
      tensor {
        dtype: DT_STRING
        tensor_shape {
        }
        string_val: "queue/Train/TrainInput/input_producer/fraction_of_32_full/fraction_of_32_full/Train/TrainInput/input_producer/"
      }
    }
  }
}
node {
  name: "Train/TrainInput/input_producer/fraction_of_32_full/ScalarSummary"
  op: "ScalarSummary"
  input: "Train/TrainInput/input_producer/fraction_of_32_full/ScalarSummary/tags"
  input: "Train/TrainInput/input_producer/fraction_of_32_full/mul"
  attr {
    key: "T"
    value {
      type: DT_FLOAT
    }
  }
  attr {
    key: "_output_shapes"
    value {
      list {
        shape {
        }
      }
    }
  }
}
node {
  name: "Train/TrainInput/fraction_of_32_full_Dequeue"
  op: "QueueDequeue"
  input: "Train/TrainInput/input_producer/fraction_of_32_full/fraction_of_32_full"
  attr {
    key: "_class"
    value {
      list {
        s: "loc:@Train/TrainInput/input_producer/fraction_of_32_full/fraction_of_32_full"
      }
    }
  }
  attr {
    key: "_output_shapes"
    value {
      list {
        shape {
        }
      }
    }
  }
  attr {
    key: "component_types"
    value {
      list {
        type: DT_INT32
      }
    }
  }
  attr {
    key: "timeout_ms"
    value {
      i: -1
    }
  }
}
node {
  name: "Train/TrainInput/mul_1/y"
  op: "Const"
  attr {
    key: "_output_shapes"
    value {
      list {
        shape {
        }
      }
    }
  }
  attr {
    key: "dtype"
    value {
      type: DT_INT32
    }
  }
  attr {
    key: "value"
    value {
      tensor {
        dtype: DT_INT32
        tensor_shape {
        }
        int_val: 20
      }
    }
  }
}
node {
  name: "Train/TrainInput/mul_1"
  op: "Mul"
  input: "Train/TrainInput/fraction_of_32_full_Dequeue"
  input: "Train/TrainInput/mul_1/y"
  attr {
    key: "T"
    value {
      type: DT_INT32
    }
  }
  attr {
    key: "_output_shapes"
    value {
      list {
        shape {
        }
      }
    }
  }
}
node {
  name: "Train/TrainInput/Slice/begin/0"
  op: "Const"
  attr {
    key: "_output_shapes"
    value {
      list {
        shape {
        }
      }
    }
  }
  attr {
    key: "dtype"
    value {
      type: DT_INT32
    }
  }
  attr {
    key: "value"
    value {
      tensor {
        dtype: DT_INT32
        tensor_shape {
        }
        int_val: 0
      }
    }
  }
}
node {
  name: "Train/TrainInput/Slice/begin"
  op: "Pack"
  input: "Train/TrainInput/Slice/begin/0"
  input: "Train/TrainInput/mul_1"
  attr {
    key: "N"
    value {
      i: 2
    }
  }
  attr {
    key: "T"
    value {
      type: DT_INT32
    }
  }
  attr {
    key: "_output_shapes"
    value {
      list {
        shape {
          dim {
            size: 2
          }
        }
      }
    }
  }
  attr {
    key: "axis"
    value {
      i: 0
    }
  }
}
node {
  name: "Train/TrainInput/Slice/size"
  op: "Const"
  attr {
    key: "_output_shapes"
    value {
      list {
        shape {
          dim {
            size: 2
          }
        }
      }
    }
  }
  attr {
    key: "dtype"
    value {
      type: DT_INT32
    }
  }
  attr {
    key: "value"
    value {
      tensor {
        dtype: DT_INT32
        tensor_shape {
          dim {
            size: 2
          }
        }
        tensor_content: "\024\000\000\000\024\000\000\000"
      }
    }
  }
}
node {
  name: "Train/TrainInput/Slice"
  op: "Slice"
  input: "Train/TrainInput/Reshape"
  input: "Train/TrainInput/Slice/begin"
  input: "Train/TrainInput/Slice/size"
  attr {
    key: "Index"
    value {
      type: DT_INT32
    }
  }
  attr {
    key: "T"
    value {
      type: DT_INT32
    }
  }
  attr {
    key: "_output_shapes"
    value {
      list {
        shape {
          dim {
            size: 20
          }
          dim {
            size: 20
          }
        }
      }
    }
  }
}
node {
  name: "Train/TrainInput/mul_2/y"
  op: "Const"
  attr {
    key: "_output_shapes"
    value {
      list {
        shape {
        }
      }
    }
  }
  attr {
    key: "dtype"
    value {
      type: DT_INT32
    }
  }
  attr {
    key: "value"
    value {
      tensor {
        dtype: DT_INT32
        tensor_shape {
        }
        int_val: 20
      }
    }
  }
}
node {
  name: "Train/TrainInput/mul_2"
  op: "Mul"
  input: "Train/TrainInput/fraction_of_32_full_Dequeue"
  input: "Train/TrainInput/mul_2/y"
  attr {
    key: "T"
    value {
      type: DT_INT32
    }
  }
  attr {
    key: "_output_shapes"
    value {
      list {
        shape {
        }
      }
    }
  }
}
node {
  name: "Train/TrainInput/add/y"
  op: "Const"
  attr {
    key: "_output_shapes"
    value {
      list {
        shape {
        }
      }
    }
  }
  attr {
    key: "dtype"
    value {
      type: DT_INT32
    }
  }
  attr {
    key: "value"
    value {
      tensor {
        dtype: DT_INT32
        tensor_shape {
        }
        int_val: 1
      }
    }
  }
}
node {
  name: "Train/TrainInput/add"
  op: "Add"
  input: "Train/TrainInput/mul_2"
  input: "Train/TrainInput/add/y"
  attr {
    key: "T"
    value {
      type: DT_INT32
    }
  }
  attr {
    key: "_output_shapes"
    value {
      list {
        shape {
        }
      }
    }
  }
}
node {
  name: "Train/TrainInput/Slice_1/begin/0"
  op: "Const"
  attr {
    key: "_output_shapes"
    value {
      list {
        shape {
        }
      }
    }
  }
  attr {
    key: "dtype"
    value {
      type: DT_INT32
    }
  }
  attr {
    key: "value"
    value {
      tensor {
        dtype: DT_INT32
        tensor_shape {
        }
        int_val: 0
      }
    }
  }
}
node {
  name: "Train/TrainInput/Slice_1/begin"
  op: "Pack"
  input: "Train/TrainInput/Slice_1/begin/0"
  input: "Train/TrainInput/add"
  attr {
    key: "N"
    value {
      i: 2
    }
  }
  attr {
    key: "T"
    value {
      type: DT_INT32
    }
  }
  attr {
    key: "_output_shapes"
    value {
      list {
        shape {
          dim {
            size: 2
          }
        }
      }
    }
  }
  attr {
    key: "axis"
    value {
      i: 0
    }
  }
}
node {
  name: "Train/TrainInput/Slice_1/size"
  op: "Const"
  attr {
    key: "_output_shapes"
    value {
      list {
        shape {
          dim {
            size: 2
          }
        }
      }
    }
  }
  attr {
    key: "dtype"
    value {
      type: DT_INT32
    }
  }
  attr {
    key: "value"
    value {
      tensor {
        dtype: DT_INT32
        tensor_shape {
          dim {
            size: 2
          }
        }
        tensor_content: "\024\000\000\000\024\000\000\000"
      }
    }
  }
}
node {
  name: "Train/TrainInput/Slice_1"
  op: "Slice"
  input: "Train/TrainInput/Reshape"
  input: "Train/TrainInput/Slice_1/begin"
  input: "Train/TrainInput/Slice_1/size"
  attr {
    key: "Index"
    value {
      type: DT_INT32
    }
  }
  attr {
    key: "T"
    value {
      type: DT_INT32
    }
  }
  attr {
    key: "_output_shapes"
    value {
      list {
        shape {
          dim {
            size: 20
          }
          dim {
            size: 20
          }
        }
      }
    }
  }
}
node {
  name: "Train/Model/pack"
  op: "Const"
  attr {
    key: "_output_shapes"
    value {
      list {
        shape {
          dim {
            size: 2
          }
        }
      }
    }
  }
  attr {
    key: "dtype"
    value {
      type: DT_INT32
    }
  }
  attr {
    key: "value"
    value {
      tensor {
        dtype: DT_INT32
        tensor_shape {
          dim {
            size: 2
          }
        }
        tensor_content: "\024\000\000\000\364\001\000\000"
      }
    }
  }
}
node {
  name: "Train/Model/zeros/Const"
  op: "Const"
  attr {
    key: "_output_shapes"
    value {
      list {
        shape {
        }
      }
    }
  }
  attr {
    key: "dtype"
    value {
      type: DT_FLOAT
    }
  }
  attr {
    key: "value"
    value {
      tensor {
        dtype: DT_FLOAT
        tensor_shape {
        }
        float_val: 0.0
      }
    }
  }
}
node {
  name: "Train/Model/zeros"
  op: "Fill"
  input: "Train/Model/pack"
  input: "Train/Model/zeros/Const"
  attr {
    key: "T"
    value {
      type: DT_FLOAT
    }
  }
  attr {
    key: "_output_shapes"
    value {
      list {
        shape {
          dim {
            size: 20
          }
          dim {
            size: 500
          }
        }
      }
    }
  }
}
node {
  name: "Train/Model/pack_1"
  op: "Const"
  attr {
    key: "_output_shapes"
    value {
      list {
        shape {
          dim {
            size: 2
          }
        }
      }
    }
  }
  attr {
    key: "dtype"
    value {
      type: DT_INT32
    }
  }
  attr {
    key: "value"
    value {
      tensor {
        dtype: DT_INT32
        tensor_shape {
          dim {
            size: 2
          }
        }
        tensor_content: "\024\000\000\000\364\001\000\000"
      }
    }
  }
}
node {
  name: "Train/Model/zeros_1/Const"
  op: "Const"
  attr {
    key: "_output_shapes"
    value {
      list {
        shape {
        }
      }
    }
  }
  attr {
    key: "dtype"
    value {
      type: DT_FLOAT
    }
  }
  attr {
    key: "value"
    value {
      tensor {
        dtype: DT_FLOAT
        tensor_shape {
        }
        float_val: 0.0
      }
    }
  }
}
node {
  name: "Train/Model/zeros_1"
  op: "Fill"
  input: "Train/Model/pack_1"
  input: "Train/Model/zeros_1/Const"
  attr {
    key: "T"
    value {
      type: DT_FLOAT
    }
  }
  attr {
    key: "_output_shapes"
    value {
      list {
        shape {
          dim {
            size: 20
          }
          dim {
            size: 500
          }
        }
      }
    }
  }
}
node {
  name: "Model/embedding"
  op: "Variable"
  device: "/device:CPU:0"
  attr {
    key: "_output_shapes"
    value {
      list {
        shape {
          dim {
            size: 10000
          }
          dim {
            size: 500
          }
        }
      }
    }
  }
  attr {
    key: "container"
    value {
      s: ""
    }
  }
  attr {
    key: "dtype"
    value {
      type: DT_FLOAT
    }
  }
  attr {
    key: "shape"
    value {
      shape {
        dim {
          size: 10000
        }
        dim {
          size: 500
        }
      }
    }
  }
  attr {
    key: "shared_name"
    value {
      s: ""
    }
  }
}
node {
  name: "Model/embedding/Initializer/random_uniform/shape"
  op: "Const"
  device: "/device:CPU:0"
  attr {
    key: "_class"
    value {
      list {
        s: "loc:@Model/embedding"
      }
    }
  }
  attr {
    key: "_output_shapes"
    value {
      list {
        shape {
          dim {
            size: 2
          }
        }
      }
    }
  }
  attr {
    key: "dtype"
    value {
      type: DT_INT32
    }
  }
  attr {
    key: "value"
    value {
      tensor {
        dtype: DT_INT32
        tensor_shape {
          dim {
            size: 2
          }
        }
        tensor_content: "\020\'\000\000\364\001\000\000"
      }
    }
  }
}
node {
  name: "Model/embedding/Initializer/random_uniform/min"
  op: "Const"
  device: "/device:CPU:0"
  attr {
    key: "_class"
    value {
      list {
        s: "loc:@Model/embedding"
      }
    }
  }
  attr {
    key: "_output_shapes"
    value {
      list {
        shape {
        }
      }
    }
  }
  attr {
    key: "dtype"
    value {
      type: DT_FLOAT
    }
  }
  attr {
    key: "value"
    value {
      tensor {
        dtype: DT_FLOAT
        tensor_shape {
        }
        float_val: -0.10000000149011612
      }
    }
  }
}
node {
  name: "Model/embedding/Initializer/random_uniform/max"
  op: "Const"
  device: "/device:CPU:0"
  attr {
    key: "_class"
    value {
      list {
        s: "loc:@Model/embedding"
      }
    }
  }
  attr {
    key: "_output_shapes"
    value {
      list {
        shape {
        }
      }
    }
  }
  attr {
    key: "dtype"
    value {
      type: DT_FLOAT
    }
  }
  attr {
    key: "value"
    value {
      tensor {
        dtype: DT_FLOAT
        tensor_shape {
        }
        float_val: 0.10000000149011612
      }
    }
  }
}
node {
  name: "Model/embedding/Initializer/random_uniform/RandomUniform"
  op: "RandomUniform"
  input: "Model/embedding/Initializer/random_uniform/shape"
  device: "/device:CPU:0"
  attr {
    key: "T"
    value {
      type: DT_INT32
    }
  }
  attr {
    key: "_class"
    value {
      list {
        s: "loc:@Model/embedding"
      }
    }
  }
  attr {
    key: "_output_shapes"
    value {
      list {
        shape {
          dim {
            size: 10000
          }
          dim {
            size: 500
          }
        }
      }
    }
  }
  attr {
    key: "dtype"
    value {
      type: DT_FLOAT
    }
  }
  attr {
    key: "seed"
    value {
      i: 0
    }
  }
  attr {
    key: "seed2"
    value {
      i: 0
    }
  }
}
node {
  name: "Model/embedding/Initializer/random_uniform/sub"
  op: "Sub"
  input: "Model/embedding/Initializer/random_uniform/max"
  input: "Model/embedding/Initializer/random_uniform/min"
  device: "/device:CPU:0"
  attr {
    key: "T"
    value {
      type: DT_FLOAT
    }
  }
  attr {
    key: "_class"
    value {
      list {
        s: "loc:@Model/embedding"
      }
    }
  }
  attr {
    key: "_output_shapes"
    value {
      list {
        shape {
        }
      }
    }
  }
}
node {
  name: "Model/embedding/Initializer/random_uniform/mul"
  op: "Mul"
  input: "Model/embedding/Initializer/random_uniform/RandomUniform"
  input: "Model/embedding/Initializer/random_uniform/sub"
  device: "/device:CPU:0"
  attr {
    key: "T"
    value {
      type: DT_FLOAT
    }
  }
  attr {
    key: "_class"
    value {
      list {
        s: "loc:@Model/embedding"
      }
    }
  }
  attr {
    key: "_output_shapes"
    value {
      list {
        shape {
          dim {
            size: 10000
          }
          dim {
            size: 500
          }
        }
      }
    }
  }
}
node {
  name: "Model/embedding/Initializer/random_uniform"
  op: "Add"
  input: "Model/embedding/Initializer/random_uniform/mul"
  input: "Model/embedding/Initializer/random_uniform/min"
  device: "/device:CPU:0"
  attr {
    key: "T"
    value {
      type: DT_FLOAT
    }
  }
  attr {
    key: "_class"
    value {
      list {
        s: "loc:@Model/embedding"
      }
    }
  }
  attr {
    key: "_output_shapes"
    value {
      list {
        shape {
          dim {
            size: 10000
          }
          dim {
            size: 500
          }
        }
      }
    }
  }
}
node {
  name: "Model/embedding/Assign"
  op: "Assign"
  input: "Model/embedding"
  input: "Model/embedding/Initializer/random_uniform"
  device: "/device:CPU:0"
  attr {
    key: "T"
    value {
      type: DT_FLOAT
    }
  }
  attr {
    key: "_class"
    value {
      list {
        s: "loc:@Model/embedding"
      }
    }
  }
  attr {
    key: "_output_shapes"
    value {
      list {
        shape {
          dim {
            size: 10000
          }
          dim {
            size: 500
          }
        }
      }
    }
  }
  attr {
    key: "use_locking"
    value {
      b: true
    }
  }
  attr {
    key: "validate_shape"
    value {
      b: true
    }
  }
}
node {
  name: "Model/embedding/read"
  op: "Identity"
  input: "Model/embedding"
  device: "/device:CPU:0"
  attr {
    key: "T"
    value {
      type: DT_FLOAT
    }
  }
  attr {
    key: "_class"
    value {
      list {
        s: "loc:@Model/embedding"
      }
    }
  }
  attr {
    key: "_output_shapes"
    value {
      list {
        shape {
          dim {
            size: 10000
          }
          dim {
            size: 500
          }
        }
      }
    }
  }
}
node {
  name: "Train/Model/embedding_lookup"
  op: "Gather"
  input: "Model/embedding/read"
  input: "Train/TrainInput/Slice"
  device: "/device:CPU:0"
  attr {
    key: "Tindices"
    value {
      type: DT_INT32
    }
  }
  attr {
    key: "Tparams"
    value {
      type: DT_FLOAT
    }
  }
  attr {
    key: "_class"
    value {
      list {
        s: "loc:@Model/embedding"
      }
    }
  }
  attr {
    key: "_output_shapes"
    value {
      list {
        shape {
          dim {
            size: 20
          }
          dim {
            size: 20
          }
          dim {
            size: 500
          }
        }
      }
    }
  }
  attr {
    key: "validate_indices"
    value {
      b: true
    }
  }
}
node {
  name: "Train/Model/split/split_dim"
  op: "Const"
  attr {
    key: "_output_shapes"
    value {
      list {
        shape {
        }
      }
    }
  }
  attr {
    key: "dtype"
    value {
      type: DT_INT32
    }
  }
  attr {
    key: "value"
    value {
      tensor {
        dtype: DT_INT32
        tensor_shape {
        }
        int_val: 1
      }
    }
  }
}
node {
  name: "Train/Model/split"
  op: "Split"
  input: "Train/Model/split/split_dim"
  input: "Train/Model/embedding_lookup"
  attr {
    key: "T"
    value {
      type: DT_FLOAT
    }
  }
  attr {
    key: "_output_shapes"
    value {
      list {
        shape {
          dim {
            size: 20
          }
          dim {
            size: 1
          }
          dim {
            size: 500
          }
        }
        shape {
          dim {
            size: 20
          }
          dim {
            size: 1
          }
          dim {
            size: 500
          }
        }
        shape {
          dim {
            size: 20
          }
          dim {
            size: 1
          }
          dim {
            size: 500
          }
        }
        shape {
          dim {
            size: 20
          }
          dim {
            size: 1
          }
          dim {
            size: 500
          }
        }
        shape {
          dim {
            size: 20
          }
          dim {
            size: 1
          }
          dim {
            size: 500
          }
        }
        shape {
          dim {
            size: 20
          }
          dim {
            size: 1
          }
          dim {
            size: 500
          }
        }
        shape {
          dim {
            size: 20
          }
          dim {
            size: 1
          }
          dim {
            size: 500
          }
        }
        shape {
          dim {
            size: 20
          }
          dim {
            size: 1
          }
          dim {
            size: 500
          }
        }
        shape {
          dim {
            size: 20
          }
          dim {
            size: 1
          }
          dim {
            size: 500
          }
        }
        shape {
          dim {
            size: 20
          }
          dim {
            size: 1
          }
          dim {
            size: 500
          }
        }
        shape {
          dim {
            size: 20
          }
          dim {
            size: 1
          }
          dim {
            size: 500
          }
        }
        shape {
          dim {
            size: 20
          }
          dim {
            size: 1
          }
          dim {
            size: 500
          }
        }
        shape {
          dim {
            size: 20
          }
          dim {
            size: 1
          }
          dim {
            size: 500
          }
        }
        shape {
          dim {
            size: 20
          }
          dim {
            size: 1
          }
          dim {
            size: 500
          }
        }
        shape {
          dim {
            size: 20
          }
          dim {
            size: 1
          }
          dim {
            size: 500
          }
        }
        shape {
          dim {
            size: 20
          }
          dim {
            size: 1
          }
          dim {
            size: 500
          }
        }
        shape {
          dim {
            size: 20
          }
          dim {
            size: 1
          }
          dim {
            size: 500
          }
        }
        shape {
          dim {
            size: 20
          }
          dim {
            size: 1
          }
          dim {
            size: 500
          }
        }
        shape {
          dim {
            size: 20
          }
          dim {
            size: 1
          }
          dim {
            size: 500
          }
        }
        shape {
          dim {
            size: 20
          }
          dim {
            size: 1
          }
          dim {
            size: 500
          }
        }
      }
    }
  }
  attr {
    key: "num_split"
    value {
      i: 20
    }
  }
}
node {
  name: "Train/Model/Squeeze"
  op: "Squeeze"
  input: "Train/Model/split"
  attr {
    key: "T"
    value {
      type: DT_FLOAT
    }
  }
  attr {
    key: "_output_shapes"
    value {
      list {
        shape {
          dim {
            size: 20
          }
          dim {
            size: 500
          }
        }
      }
    }
  }
  attr {
    key: "squeeze_dims"
    value {
      list {
        i: 1
      }
    }
  }
}
node {
  name: "Train/Model/Squeeze_1"
  op: "Squeeze"
  input: "Train/Model/split:1"
  attr {
    key: "T"
    value {
      type: DT_FLOAT
    }
  }
  attr {
    key: "_output_shapes"
    value {
      list {
        shape {
          dim {
            size: 20
          }
          dim {
            size: 500
          }
        }
      }
    }
  }
  attr {
    key: "squeeze_dims"
    value {
      list {
        i: 1
      }
    }
  }
}
node {
  name: "Train/Model/Squeeze_2"
  op: "Squeeze"
  input: "Train/Model/split:2"
  attr {
    key: "T"
    value {
      type: DT_FLOAT
    }
  }
  attr {
    key: "_output_shapes"
    value {
      list {
        shape {
          dim {
            size: 20
          }
          dim {
            size: 500
          }
        }
      }
    }
  }
  attr {
    key: "squeeze_dims"
    value {
      list {
        i: 1
      }
    }
  }
}
node {
  name: "Train/Model/Squeeze_3"
  op: "Squeeze"
  input: "Train/Model/split:3"
  attr {
    key: "T"
    value {
      type: DT_FLOAT
    }
  }
  attr {
    key: "_output_shapes"
    value {
      list {
        shape {
          dim {
            size: 20
          }
          dim {
            size: 500
          }
        }
      }
    }
  }
  attr {
    key: "squeeze_dims"
    value {
      list {
        i: 1
      }
    }
  }
}
node {
  name: "Train/Model/Squeeze_4"
  op: "Squeeze"
  input: "Train/Model/split:4"
  attr {
    key: "T"
    value {
      type: DT_FLOAT
    }
  }
  attr {
    key: "_output_shapes"
    value {
      list {
        shape {
          dim {
            size: 20
          }
          dim {
            size: 500
          }
        }
      }
    }
  }
  attr {
    key: "squeeze_dims"
    value {
      list {
        i: 1
      }
    }
  }
}
node {
  name: "Train/Model/Squeeze_5"
  op: "Squeeze"
  input: "Train/Model/split:5"
  attr {
    key: "T"
    value {
      type: DT_FLOAT
    }
  }
  attr {
    key: "_output_shapes"
    value {
      list {
        shape {
          dim {
            size: 20
          }
          dim {
            size: 500
          }
        }
      }
    }
  }
  attr {
    key: "squeeze_dims"
    value {
      list {
        i: 1
      }
    }
  }
}
node {
  name: "Train/Model/Squeeze_6"
  op: "Squeeze"
  input: "Train/Model/split:6"
  attr {
    key: "T"
    value {
      type: DT_FLOAT
    }
  }
  attr {
    key: "_output_shapes"
    value {
      list {
        shape {
          dim {
            size: 20
          }
          dim {
            size: 500
          }
        }
      }
    }
  }
  attr {
    key: "squeeze_dims"
    value {
      list {
        i: 1
      }
    }
  }
}
node {
  name: "Train/Model/Squeeze_7"
  op: "Squeeze"
  input: "Train/Model/split:7"
  attr {
    key: "T"
    value {
      type: DT_FLOAT
    }
  }
  attr {
    key: "_output_shapes"
    value {
      list {
        shape {
          dim {
            size: 20
          }
          dim {
            size: 500
          }
        }
      }
    }
  }
  attr {
    key: "squeeze_dims"
    value {
      list {
        i: 1
      }
    }
  }
}
node {
  name: "Train/Model/Squeeze_8"
  op: "Squeeze"
  input: "Train/Model/split:8"
  attr {
    key: "T"
    value {
      type: DT_FLOAT
    }
  }
  attr {
    key: "_output_shapes"
    value {
      list {
        shape {
          dim {
            size: 20
          }
          dim {
            size: 500
          }
        }
      }
    }
  }
  attr {
    key: "squeeze_dims"
    value {
      list {
        i: 1
      }
    }
  }
}
node {
  name: "Train/Model/Squeeze_9"
  op: "Squeeze"
  input: "Train/Model/split:9"
  attr {
    key: "T"
    value {
      type: DT_FLOAT
    }
  }
  attr {
    key: "_output_shapes"
    value {
      list {
        shape {
          dim {
            size: 20
          }
          dim {
            size: 500
          }
        }
      }
    }
  }
  attr {
    key: "squeeze_dims"
    value {
      list {
        i: 1
      }
    }
  }
}
node {
  name: "Train/Model/Squeeze_10"
  op: "Squeeze"
  input: "Train/Model/split:10"
  attr {
    key: "T"
    value {
      type: DT_FLOAT
    }
  }
  attr {
    key: "_output_shapes"
    value {
      list {
        shape {
          dim {
            size: 20
          }
          dim {
            size: 500
          }
        }
      }
    }
  }
  attr {
    key: "squeeze_dims"
    value {
      list {
        i: 1
      }
    }
  }
}
node {
  name: "Train/Model/Squeeze_11"
  op: "Squeeze"
  input: "Train/Model/split:11"
  attr {
    key: "T"
    value {
      type: DT_FLOAT
    }
  }
  attr {
    key: "_output_shapes"
    value {
      list {
        shape {
          dim {
            size: 20
          }
          dim {
            size: 500
          }
        }
      }
    }
  }
  attr {
    key: "squeeze_dims"
    value {
      list {
        i: 1
      }
    }
  }
}
node {
  name: "Train/Model/Squeeze_12"
  op: "Squeeze"
  input: "Train/Model/split:12"
  attr {
    key: "T"
    value {
      type: DT_FLOAT
    }
  }
  attr {
    key: "_output_shapes"
    value {
      list {
        shape {
          dim {
            size: 20
          }
          dim {
            size: 500
          }
        }
      }
    }
  }
  attr {
    key: "squeeze_dims"
    value {
      list {
        i: 1
      }
    }
  }
}
node {
  name: "Train/Model/Squeeze_13"
  op: "Squeeze"
  input: "Train/Model/split:13"
  attr {
    key: "T"
    value {
      type: DT_FLOAT
    }
  }
  attr {
    key: "_output_shapes"
    value {
      list {
        shape {
          dim {
            size: 20
          }
          dim {
            size: 500
          }
        }
      }
    }
  }
  attr {
    key: "squeeze_dims"
    value {
      list {
        i: 1
      }
    }
  }
}
node {
  name: "Train/Model/Squeeze_14"
  op: "Squeeze"
  input: "Train/Model/split:14"
  attr {
    key: "T"
    value {
      type: DT_FLOAT
    }
  }
  attr {
    key: "_output_shapes"
    value {
      list {
        shape {
          dim {
            size: 20
          }
          dim {
            size: 500
          }
        }
      }
    }
  }
  attr {
    key: "squeeze_dims"
    value {
      list {
        i: 1
      }
    }
  }
}
node {
  name: "Train/Model/Squeeze_15"
  op: "Squeeze"
  input: "Train/Model/split:15"
  attr {
    key: "T"
    value {
      type: DT_FLOAT
    }
  }
  attr {
    key: "_output_shapes"
    value {
      list {
        shape {
          dim {
            size: 20
          }
          dim {
            size: 500
          }
        }
      }
    }
  }
  attr {
    key: "squeeze_dims"
    value {
      list {
        i: 1
      }
    }
  }
}
node {
  name: "Train/Model/Squeeze_16"
  op: "Squeeze"
  input: "Train/Model/split:16"
  attr {
    key: "T"
    value {
      type: DT_FLOAT
    }
  }
  attr {
    key: "_output_shapes"
    value {
      list {
        shape {
          dim {
            size: 20
          }
          dim {
            size: 500
          }
        }
      }
    }
  }
  attr {
    key: "squeeze_dims"
    value {
      list {
        i: 1
      }
    }
  }
}
node {
  name: "Train/Model/Squeeze_17"
  op: "Squeeze"
  input: "Train/Model/split:17"
  attr {
    key: "T"
    value {
      type: DT_FLOAT
    }
  }
  attr {
    key: "_output_shapes"
    value {
      list {
        shape {
          dim {
            size: 20
          }
          dim {
            size: 500
          }
        }
      }
    }
  }
  attr {
    key: "squeeze_dims"
    value {
      list {
        i: 1
      }
    }
  }
}
node {
  name: "Train/Model/Squeeze_18"
  op: "Squeeze"
  input: "Train/Model/split:18"
  attr {
    key: "T"
    value {
      type: DT_FLOAT
    }
  }
  attr {
    key: "_output_shapes"
    value {
      list {
        shape {
          dim {
            size: 20
          }
          dim {
            size: 500
          }
        }
      }
    }
  }
  attr {
    key: "squeeze_dims"
    value {
      list {
        i: 1
      }
    }
  }
}
node {
  name: "Train/Model/Squeeze_19"
  op: "Squeeze"
  input: "Train/Model/split:19"
  attr {
    key: "T"
    value {
      type: DT_FLOAT
    }
  }
  attr {
    key: "_output_shapes"
    value {
      list {
        shape {
          dim {
            size: 20
          }
          dim {
            size: 500
          }
        }
      }
    }
  }
  attr {
    key: "squeeze_dims"
    value {
      list {
        i: 1
      }
    }
  }
}
node {
  name: "Model/RNN/MultiRNNCell/Cell0/GRUCell/Gates/Linear/Matrix"
  op: "Variable"
  attr {
    key: "_output_shapes"
    value {
      list {
        shape {
          dim {
            size: 1000
          }
          dim {
            size: 1000
          }
        }
      }
    }
  }
  attr {
    key: "container"
    value {
      s: ""
    }
  }
  attr {
    key: "dtype"
    value {
      type: DT_FLOAT
    }
  }
  attr {
    key: "shape"
    value {
      shape {
        dim {
          size: 1000
        }
        dim {
          size: 1000
        }
      }
    }
  }
  attr {
    key: "shared_name"
    value {
      s: ""
    }
  }
}
node {
  name: "Model/RNN/MultiRNNCell/Cell0/GRUCell/Gates/Linear/Matrix/Initializer/random_uniform/shape"
  op: "Const"
  attr {
    key: "_class"
    value {
      list {
        s: "loc:@Model/RNN/MultiRNNCell/Cell0/GRUCell/Gates/Linear/Matrix"
      }
    }
  }
  attr {
    key: "_output_shapes"
    value {
      list {
        shape {
          dim {
            size: 2
          }
        }
      }
    }
  }
  attr {
    key: "dtype"
    value {
      type: DT_INT32
    }
  }
  attr {
    key: "value"
    value {
      tensor {
        dtype: DT_INT32
        tensor_shape {
          dim {
            size: 2
          }
        }
        tensor_content: "\350\003\000\000\350\003\000\000"
      }
    }
  }
}
node {
  name: "Model/RNN/MultiRNNCell/Cell0/GRUCell/Gates/Linear/Matrix/Initializer/random_uniform/min"
  op: "Const"
  attr {
    key: "_class"
    value {
      list {
        s: "loc:@Model/RNN/MultiRNNCell/Cell0/GRUCell/Gates/Linear/Matrix"
      }
    }
  }
  attr {
    key: "_output_shapes"
    value {
      list {
        shape {
        }
      }
    }
  }
  attr {
    key: "dtype"
    value {
      type: DT_FLOAT
    }
  }
  attr {
    key: "value"
    value {
      tensor {
        dtype: DT_FLOAT
        tensor_shape {
        }
        float_val: -0.10000000149011612
      }
    }
  }
}
node {
  name: "Model/RNN/MultiRNNCell/Cell0/GRUCell/Gates/Linear/Matrix/Initializer/random_uniform/max"
  op: "Const"
  attr {
    key: "_class"
    value {
      list {
        s: "loc:@Model/RNN/MultiRNNCell/Cell0/GRUCell/Gates/Linear/Matrix"
      }
    }
  }
  attr {
    key: "_output_shapes"
    value {
      list {
        shape {
        }
      }
    }
  }
  attr {
    key: "dtype"
    value {
      type: DT_FLOAT
    }
  }
  attr {
    key: "value"
    value {
      tensor {
        dtype: DT_FLOAT
        tensor_shape {
        }
        float_val: 0.10000000149011612
      }
    }
  }
}
node {
  name: "Model/RNN/MultiRNNCell/Cell0/GRUCell/Gates/Linear/Matrix/Initializer/random_uniform/RandomUniform"
  op: "RandomUniform"
  input: "Model/RNN/MultiRNNCell/Cell0/GRUCell/Gates/Linear/Matrix/Initializer/random_uniform/shape"
  attr {
    key: "T"
    value {
      type: DT_INT32
    }
  }
  attr {
    key: "_class"
    value {
      list {
        s: "loc:@Model/RNN/MultiRNNCell/Cell0/GRUCell/Gates/Linear/Matrix"
      }
    }
  }
  attr {
    key: "_output_shapes"
    value {
      list {
        shape {
          dim {
            size: 1000
          }
          dim {
            size: 1000
          }
        }
      }
    }
  }
  attr {
    key: "dtype"
    value {
      type: DT_FLOAT
    }
  }
  attr {
    key: "seed"
    value {
      i: 0
    }
  }
  attr {
    key: "seed2"
    value {
      i: 0
    }
  }
}
node {
  name: "Model/RNN/MultiRNNCell/Cell0/GRUCell/Gates/Linear/Matrix/Initializer/random_uniform/sub"
  op: "Sub"
  input: "Model/RNN/MultiRNNCell/Cell0/GRUCell/Gates/Linear/Matrix/Initializer/random_uniform/max"
  input: "Model/RNN/MultiRNNCell/Cell0/GRUCell/Gates/Linear/Matrix/Initializer/random_uniform/min"
  attr {
    key: "T"
    value {
      type: DT_FLOAT
    }
  }
  attr {
    key: "_class"
    value {
      list {
        s: "loc:@Model/RNN/MultiRNNCell/Cell0/GRUCell/Gates/Linear/Matrix"
      }
    }
  }
  attr {
    key: "_output_shapes"
    value {
      list {
        shape {
        }
      }
    }
  }
}
node {
  name: "Model/RNN/MultiRNNCell/Cell0/GRUCell/Gates/Linear/Matrix/Initializer/random_uniform/mul"
  op: "Mul"
  input: "Model/RNN/MultiRNNCell/Cell0/GRUCell/Gates/Linear/Matrix/Initializer/random_uniform/RandomUniform"
  input: "Model/RNN/MultiRNNCell/Cell0/GRUCell/Gates/Linear/Matrix/Initializer/random_uniform/sub"
  attr {
    key: "T"
    value {
      type: DT_FLOAT
    }
  }
  attr {
    key: "_class"
    value {
      list {
        s: "loc:@Model/RNN/MultiRNNCell/Cell0/GRUCell/Gates/Linear/Matrix"
      }
    }
  }
  attr {
    key: "_output_shapes"
    value {
      list {
        shape {
          dim {
            size: 1000
          }
          dim {
            size: 1000
          }
        }
      }
    }
  }
}
node {
  name: "Model/RNN/MultiRNNCell/Cell0/GRUCell/Gates/Linear/Matrix/Initializer/random_uniform"
  op: "Add"
  input: "Model/RNN/MultiRNNCell/Cell0/GRUCell/Gates/Linear/Matrix/Initializer/random_uniform/mul"
  input: "Model/RNN/MultiRNNCell/Cell0/GRUCell/Gates/Linear/Matrix/Initializer/random_uniform/min"
  attr {
    key: "T"
    value {
      type: DT_FLOAT
    }
  }
  attr {
    key: "_class"
    value {
      list {
        s: "loc:@Model/RNN/MultiRNNCell/Cell0/GRUCell/Gates/Linear/Matrix"
      }
    }
  }
  attr {
    key: "_output_shapes"
    value {
      list {
        shape {
          dim {
            size: 1000
          }
          dim {
            size: 1000
          }
        }
      }
    }
  }
}
node {
  name: "Model/RNN/MultiRNNCell/Cell0/GRUCell/Gates/Linear/Matrix/Assign"
  op: "Assign"
  input: "Model/RNN/MultiRNNCell/Cell0/GRUCell/Gates/Linear/Matrix"
  input: "Model/RNN/MultiRNNCell/Cell0/GRUCell/Gates/Linear/Matrix/Initializer/random_uniform"
  attr {
    key: "T"
    value {
      type: DT_FLOAT
    }
  }
  attr {
    key: "_class"
    value {
      list {
        s: "loc:@Model/RNN/MultiRNNCell/Cell0/GRUCell/Gates/Linear/Matrix"
      }
    }
  }
  attr {
    key: "_output_shapes"
    value {
      list {
        shape {
          dim {
            size: 1000
          }
          dim {
            size: 1000
          }
        }
      }
    }
  }
  attr {
    key: "use_locking"
    value {
      b: true
    }
  }
  attr {
    key: "validate_shape"
    value {
      b: true
    }
  }
}
node {
  name: "Model/RNN/MultiRNNCell/Cell0/GRUCell/Gates/Linear/Matrix/read"
  op: "Identity"
  input: "Model/RNN/MultiRNNCell/Cell0/GRUCell/Gates/Linear/Matrix"
  attr {
    key: "T"
    value {
      type: DT_FLOAT
    }
  }
  attr {
    key: "_output_shapes"
    value {
      list {
        shape {
          dim {
            size: 1000
          }
          dim {
            size: 1000
          }
        }
      }
    }
  }
}
node {
  name: "Train/Model/RNN/MultiRNNCell/Cell0/GRUCell/Gates/Linear/concat/concat_dim"
  op: "Const"
  attr {
    key: "_output_shapes"
    value {
      list {
        shape {
        }
      }
    }
  }
  attr {
    key: "dtype"
    value {
      type: DT_INT32
    }
  }
  attr {
    key: "value"
    value {
      tensor {
        dtype: DT_INT32
        tensor_shape {
        }
        int_val: 1
      }
    }
  }
}
node {
  name: "Train/Model/RNN/MultiRNNCell/Cell0/GRUCell/Gates/Linear/concat"
  op: "Concat"
  input: "Train/Model/RNN/MultiRNNCell/Cell0/GRUCell/Gates/Linear/concat/concat_dim"
  input: "Train/Model/Squeeze"
  input: "Train/Model/zeros"
  attr {
    key: "N"
    value {
      i: 2
    }
  }
  attr {
    key: "T"
    value {
      type: DT_FLOAT
    }
  }
  attr {
    key: "_output_shapes"
    value {
      list {
        shape {
          dim {
            size: 20
          }
          dim {
            size: 1000
          }
        }
      }
    }
  }
}
node {
  name: "Train/Model/RNN/MultiRNNCell/Cell0/GRUCell/Gates/Linear/MatMul"
  op: "MatMul"
  input: "Train/Model/RNN/MultiRNNCell/Cell0/GRUCell/Gates/Linear/concat"
  input: "Model/RNN/MultiRNNCell/Cell0/GRUCell/Gates/Linear/Matrix/read"
  attr {
